/**
  ******************************************************************************
  * @file    network_data_params.c
  * @author  AST Embedded Analytics Research Platform
  * @date    2026-03-17T20:35:11+0800
  * @brief   AI Tool Automatic Code Generator for Embedded NN computing
  ******************************************************************************
  * Copyright (c) 2026 STMicroelectronics.
  * All rights reserved.
  *
  * This software is licensed under terms that can be found in the LICENSE file
  * in the root directory of this software component.
  * If no LICENSE file comes with this software, it is provided AS-IS.
  ******************************************************************************
  */

#include "network_data_params.h"


/**  Activations Section  ****************************************************/
ai_handle g_network_activations_table[1 + 2] = {
  AI_HANDLE_PTR(AI_MAGIC_MARKER),
  AI_HANDLE_PTR(NULL),
  AI_HANDLE_PTR(AI_MAGIC_MARKER),
};




/**  Weights Section  ********************************************************/
AI_ALIGNED(32)
const ai_u64 s_network_weights_array_u64[6365] = {
  0xbd294494bd9e5eb0U, 0xbc065650bd15e3ebU, 0x3d90824abd6cbdccU, 0xbd4fc4ca3dabf50cU,
  0x3c5aae90bb596860U, 0x3d588850bd5122d6U, 0x3af724073d878637U, 0xbc4f73a8bd9357adU,
  0xbd438e65bd2fd40aU, 0x3da20aa4bc804eb4U, 0x3d8421a2bd07bcafU, 0x3c7d1740ba40dc00U,
  0x3d2b76683b22be60U, 0x3d036222bd299f61U, 0x3d5132783d83255eU, 0x3d998162bd9c378cU,
  0xbd93cc5ebb70895bU, 0xbe88f153be3b2fb7U, 0xbdc78542be2c4254U, 0xbe32414cbcfc4639U,
  0xbdab83e2be1a2045U, 0xbe0c143a3e312de7U, 0xbe727e28be902133U, 0xbdee2f863e361de0U,
  0xbe230128bdaff2ceU, 0xbe780e1abd8d6ff4U, 0x3d6095e8bc6d8508U, 0xbc43bc90bcc289a8U,
  0x3b40da003bb0daf0U, 0xbe0776d23cbf7ee0U, 0x3dad5d43be3654aeU, 0xbdec4de1bdb91e7bU,
  0x3da47c0bbe481aa9U, 0xbe011d5bbdf295aaU, 0x3dcb7d1cbcbf6760U, 0x3e1ed3b63e0e4695U,
  0xbd18325bbd824d38U, 0x3e8539303c803aabU, 0x3d92fe753db19fdaU, 0xbe588e75bbd5ef87U,
  0xbdddff0cbe42ab58U, 0xbda85b213d9f102aU, 0xbd8f4c06bb3ad8a0U, 0xbe27e33cbbbec1daU,
  0x3d6608c73dcaaf33U, 0xb9f4db623dd23d05U, 0xbe29b2febe94322bU, 0xbe6699c1bdd53037U,
  0xbe981fd6be49a991U, 0xbdf1345cbe14ca1eU, 0xbdc24c68be1e5481U, 0x3da4b4d13d65a1e2U,
  0x3ec05ce6bd9d58f3U, 0x3eb3ea2b3f10794cU, 0x3cce78f53dd337b1U, 0x3ad356403cfbe652U,
  0xbdfd0a193d89cfa2U, 0xbdd575453d2e02f4U, 0xbdaf74ef3b6f207dU, 0xbbe86d44be6085a7U,
  0xbe73d59cbde70340U, 0xbe7b5a62be56eadfU, 0xbe213228bccdc598U, 0xbe47f547bdffeabcU,
  0xbddd7d31bde6d7f3U, 0x3d1965cfbe20b885U, 0x3e81a9db3d7682c1U, 0x3ee0f6b43e61c2a5U,
  0x3e56f1cf3ee7fc81U, 0x3a3b3e81bdfc2013U, 0x3c1b9900b95e1800U, 0xbdd93933be01d3e1U,
  0x3d9441cebe2ebc3dU, 0xbb21a6743c6896caU, 0xbc87dc5a3c67ffbaU, 0x3dc52a173c149e95U,
  0xbd91d00f3da618e8U, 0xbc8420d53ccabe86U, 0xbe1edbbfbdaf81c9U, 0xbe45263ebe056a7aU,
  0xbe11d0b3bd3bf9c2U, 0x3e1a65eebd60a7ffU, 0x3df2a2653e15cc65U, 0x3e3b8f173e913fbaU,
  0xbd59d1053d6b25a8U, 0xbd4ed6673e2ce434U, 0x3d9526d7be05051eU, 0x3e1d28dd3d029140U,
  0x3e6f7e333db3a94cU, 0x3e48ec333d850584U, 0x3c34990c3e5aafcaU, 0x3b1fd8f5bcf2039bU,
  0x3e18d98abd0d7647U, 0x3daef6babc946982U, 0xbd6169ef3dfdf9e9U, 0x3db63c20bd91e7ecU,
  0x3eb98b9e3e200b82U, 0x3e28fbc43ea9a471U, 0xbdee8e53bcae6f53U, 0x3d4391943d4150d1U,
  0xbdac42b6be293103U, 0x3e35f0b23d97bf01U, 0x3de67cb03e2b29d9U, 0x3dd9e1f43e053866U,
  0x3d563d193dad5809U, 0x3de6d1243c58cefcU, 0x3d8f206f3df63fbaU, 0x3e4ffae33e39f072U,
  0x3e72bcd53e1be9caU, 0x3e9eab353dae31baU, 0x3ee6328c3eb281a9U, 0x3c251a7d3ed5aac9U,
  0x3d23f1f9be33f5f9U, 0x3dca58a33e4be450U, 0x3d7a408dbe1405d8U, 0x3e53c44b3dd6af17U,
  0x3e0f4c3e3e7b1353U, 0x3e1213123dce800bU, 0xbc0a12cd3d32784dU, 0xbe13972ebe02ffa8U,
  0xbc941de3bdd75c5cU, 0x3e0754343d8702daU, 0x3e6d50e73c58d2a1U, 0x3e84cf3b3dea48e3U,
  0x3f3941243f224074U, 0x3c9e3fd33e929af3U, 0x3e194e5c3d94f44dU, 0x3d4881a4bd1c4f36U,
  0x3dad9b80bdf66d6aU, 0x3e6677233e19f5adU, 0x3e37e8f03e72ab4dU, 0x3e1cf64c3e02557eU,
  0xbdd11e043d27749aU, 0xbe06c65abe220811U, 0xbd43ca68be1c2fcdU, 0x3d3be0133ca5dc31U,
  0x3e07934a3d97aa2bU, 0x3e3fd9db3e32366dU, 0x3f0f523d3ef4f2b4U, 0x3d346cef3e328e48U,
  0x3e2235713d6419d8U, 0xbe8f5a36bc72e9e9U, 0x3d3905803ddeb0afU, 0x3df08b663d7d292dU,
  0x3e476e933e26cb34U, 0x3e02c2ff3e35fa20U, 0xbe0ad09c3e0f416dU, 0xbae66324bdf9a96bU,
  0xbdf4bfbf3d63536bU, 0x3d8c3fdb3cd0d6b1U, 0x3e2b69493d43dfbcU, 0x3d7d49bb3e01a03dU,
  0x3f0226e03ea8eecfU, 0x3e090f043d391130U, 0x3d6d2dee3e933342U, 0xbd3853363e73620bU,
  0x3dadbd113d7a3235U, 0x3e8757ff3de7eaafU, 0x3e7e54333e98278eU, 0x3e83e1ff3eabf377U,
  0xbc962c2f3e23c814U, 0x3e024abebc7c8fa8U, 0x3ddb26053e5f8218U, 0xbd9716f43df45697U,
  0x3d135218bcf2ad43U, 0xbcb359663d8d2f36U, 0x3e130aa13db76042U, 0xbce0ef583d6a9ad8U,
  0x3e6ee5183daf54cdU, 0x3d25ced83ebe8aa7U, 0x3e6379393d69e489U, 0x3e7b8e123db041a2U,
  0x3ddcb9073e6b265dU, 0x3e10ebb83e117c87U, 0xbcb003243ae715d5U, 0x3e93e361bc947b10U,
  0x3e3740373e8c97c8U, 0x3df2ab623de1f195U, 0x3cb1348abc5e89d1U, 0xbd8e2a393d30249aU,
  0xbe5dbfa4be608356U, 0xbcd352dcbd92b97aU, 0x3e4f89aabd06fa62U, 0xbd5c98e93ed22b37U,
  0x3e0189a93e86e9d7U, 0x3e13c74e3d830d22U, 0x3ce900bc3c46645fU, 0x3d80775c3d89ac98U,
  0xbd91aedabe1d14e4U, 0x3ed7001e3d849e23U, 0x3ea88c243eaf45a1U, 0x3dd92fe23e1153f9U,
  0x3d7634eb3e34e4a3U, 0xbe40c4493d09e7a2U, 0xbe850fd9beb1516bU, 0xbe4b5b6cbede6734U,
  0x3e2d51353dca52baU, 0x3e2501153e48ead2U, 0x3e409f4d3e94f377U, 0xbdda89e13dc63d68U,
  0xbd570bc03cec5cc4U, 0x3d8faa2d3e2e58d5U, 0x3bd0dbbdbcf704afU, 0x3e82f66c3e812763U,
  0x3ea7aa2b3ed8d247U, 0x3e547e4d3e1a808bU, 0xbd53a89c3cba2750U, 0xbd3f4f3abc7bf4bbU,
  0xbe35e172be49f2d2U, 0xbe436c60be955696U, 0xbd0fee1a3d3922a6U, 0x3e36e5d9bc117838U,
  0xbe10e6ffbd7c4159U, 0xbd7ab8c03da1d7a7U, 0xbc9c80423bc09d5cU, 0x3d0d8a69bc87973bU,
  0x3d9224f13b692a48U, 0x3e96652f3e5fc82dU, 0x3e8f56ed3ec7c60fU, 0x3d439cfd3e6750ebU,
  0xbe002298bde392d3U, 0xbe011928bd8177edU, 0xbebcf956bee81f80U, 0xbe50d9ddbe58d679U,
  0xbe801fc73e4d4e50U, 0xbdc8c038bd804a21U, 0xbe2ae23cbe398898U, 0x3dc260a03c89082fU,
  0xbdbb4e573e00e8f4U, 0xbe3bfbd8be29fef3U, 0x3e009e6abc9a0a31U, 0x3e9823b03e0fb1e2U,
  0x3e75fa683e8d9ff5U, 0xbd9364843d53408cU, 0xbe0d74c1be362ebcU, 0xbdf939f9be3987d7U,
  0xbeac4a32beb078eaU, 0xbe9a7280beb1ad31U, 0xbc94d6e1bb53b3e0U, 0xbe2320fb3d1075aeU,
  0xbdc6ff03be6524abU, 0x3d9b6eab3c8cb0c4U, 0x3de20a643dc791b6U, 0x3d886d0abd731494U,
  0x3e35247b3cc7f2fdU, 0x3ea6fc3c3ec3261aU, 0x3dd283e73e82a11bU, 0xbda7ea85bc21417bU,
  0xbe262532bdf42824U, 0xbe4b8cc1be81707bU, 0xbe4253a2bd7888faU, 0xbe36c971be1b50a0U,
  0xbe1784823e80c368U, 0xbdd3360a3d643c41U, 0xbce90587be54e718U, 0x3d2d8d8f3da934cbU,
  0x3b5771f73d0e1255U, 0x3d5b34dfbc714f7cU, 0x3e893f2b3e187ed3U, 0x3e7c440d3e950346U,
  0x3d15e4f23d81c881U, 0xbdf0acf3bd123116U, 0xbe18ebedbdc77ef9U, 0xbe8f9b45be46f037U,
  0xbec0c8a0be5c94a4U, 0xbe6901663db2026dU, 0xbbaffff03d24b124U, 0xbe595c08bd5036eaU,
  0xbe3ab785be45e7c6U, 0xbd29eab9bcdfc0d6U, 0xbe19c9f2bba7a892U, 0xbd7647b5be1522f6U,
  0x3dfffdbebd87e466U, 0x3cf6dfb73e1de9fcU, 0xbde78ddbbc120893U, 0xbd76b4e2bda829abU,
  0xbe39bfc9be33cd31U, 0xbea152f8bea0736cU, 0xbe6563d8be3c426dU, 0xbe074fbdbe37e78eU,
  0xbe486ca6bd8dd4dfU, 0xbeb9c74cbd61df7aU, 0xbe4057eabedd1cfeU, 0xbe28d32ebe4332f6U,
  0xbe3bb2c1bde74f66U, 0xbe66b6fbbe06c270U, 0x3d59c67bbcfe626bU, 0x3c7870e13d0b8de6U,
  0x3c3bb9813da4330cU, 0xbe2177dbbdaa78a2U, 0xbe510e7bbe3aa167U, 0xbe1d8936be056f79U,
  0xbdb50e52bd013306U, 0xbc8235e2be7d676dU, 0xbe593f6f3c15e987U, 0xbe5ac877be8cc653U,
  0xbdee07b7be857574U, 0xbe6f5cabbe2887feU, 0xbd8e71fbbdb871d8U, 0xbe003bfebe0307a9U,
  0xbc9026ddbe000a67U, 0x3ded97eb3d81ba64U, 0xbd63c9b3bd26721cU, 0xbe03d79abdcb48edU,
  0x3d640920bbf08653U, 0x3c65d621bdbfce6bU, 0xbe02f3003dcc95a1U, 0x3d0e2789be87fa66U,
  0xbdd0c1fbbbd111b6U, 0xbead4b56beb22835U, 0xbe2beaecbd1718d2U, 0xbd80226cbe167e70U,
  0x3adc3196bd570787U, 0xbd160a76bd8d79ceU, 0xbd8ee2123c61f74bU, 0xbd0c2db0bc7f9931U,
  0xbcafbf11bca4386bU, 0xbd5e4c0fbd974851U, 0xbc9b6d29bd2c7f51U, 0x3d19f67fbe18f11cU,
  0xbdb7b6f43e1cec16U, 0x3d12e1543dfe61acU, 0xbd8e6b923d3ef1f0U, 0xbe97e096be92f97bU,
  0xbdd6ebafbde05ec9U, 0xbd2eb290bca50129U, 0xbe0e9a883b74cecdU, 0xbd958f35bd38d737U,
  0xbda9c813bd61d561U, 0x3d64eac3bd683bfcU, 0x3c4150443e14f534U, 0x3bd2232a3d645d62U,
  0x3e2565e13e2ba7c5U, 0xbdd08adcbd0bdfadU, 0xbd9845063dbef1dbU, 0xbd47651ebd2cee39U,
  0x391922003ce27024U, 0xbdedcd2cbdac7f46U, 0x3d8a2a65be0d8d29U, 0x3d6b362b3be71a42U,
  0xbdad171c3b8b1572U, 0x3d9496033d96f9a2U, 0x3b6ab870bd92fd8bU, 0x3d9264613b719c37U,
  0x3d4906943d1e48a9U, 0x3e5007c13deef54cU, 0x3df8a30b3e72b113U, 0xbd94b01c3d484c72U,
  0xbe6f128cbe2c6af4U, 0xbc93bd94be383228U, 0xbd1b92b0bce91730U, 0x3e14534abdcf0c6aU,
  0x3c93b7c83de5eba9U, 0x3c10f48bbc421630U, 0x3ddb67393ca7f722U, 0x3e507e753e10ff06U,
  0x3e0b106c3db65542U, 0x3e5b188a3e6f62b1U, 0x3e9796783e7da6dfU, 0x3d29be4a3e698c51U,
  0x3e82da473e5bf12aU, 0x3de44e583cfcf1b6U, 0xbd93e449bd2d8843U, 0x3d7058a4bd87fac0U,
  0xbcee7690bd8bffaeU, 0x3e2232483cfc297cU, 0x3dcb6a67bd3128c9U, 0x3de334d03d8deed9U,
  0x3e4c92a53dfb302fU, 0xba752cd63dec6b1dU, 0x3d5ed91fbd48a595U, 0x3dd048443e84c33fU,
  0x3e5a55213e1cae15U, 0x3dab96303e794c07U, 0x3eaf65013e3f3484U, 0x3e1b1f543e7e8402U,
  0x3d448d933e369ee0U, 0x3c022df83d7b70b8U, 0x3c9648b4bc8b72c8U, 0x3d69da88bd5bcff3U,
  0x3da6e3ae3d99cce3U, 0xbdc2e39f3e1971e2U, 0x3d255caf3dda2d60U, 0xbd2257723d75ce76U,
  0x3e5d4c713d1c950aU, 0x3e77d69a3ea8b63cU, 0x3eaada8f3e79375fU, 0x3e358d3f3e75386dU,
  0x3e9c7aa43e4a6c92U, 0x3e0249733e505c29U, 0xbd3f4cb8397a4200U, 0x3d3355c8bd91eaf7U,
  0x3d4633acbd2d3172U, 0x3cd8ee50bd4b3397U, 0x3cdbc4703d048fd6U, 0xbd345892bd9d0992U,
  0xbac99b003c095408U, 0x3d38d4e0bcd32694U, 0x3ddd217c3e0df4d6U, 0xbe0b0af0be1b1008U,
  0xbcf77e6abdafd104U, 0x3ceeba10bc12dfe0U, 0xbcb34e783d2702acU, 0x3d715f3cbda526feU,
  0x3d8b685abd744b92U, 0x3daccb503d9b7cd0U, 0x3d8c9f24bcf53f56U, 0x3d58d5483dae7496U,
  0x3e2039483d34be0dU, 0x3e41e12d3e73b20eU, 0x3e8636f23e4244b9U, 0x3ec342543e9a2b71U,
  0x3e86cfed3ecde9ceU, 0x3d695b41be1202c0U, 0x3e5e7f35bd7270eeU, 0x3ea37d603f008626U,
  0x3e9a50e63e7cb0d4U, 0x3e605f2a3e5cb8b1U, 0x3d8fabea3b3ad220U, 0xbbf5e810bd90f7b6U,
  0xbd309cd93d08c2b8U, 0x3e2cf9fc3d84c05eU, 0x3e8bb1303e32acb0U, 0x3eb2350d3ecba334U,
  0x3e5fd2f03ec272a7U, 0x3eebd4e93ecac47aU, 0x3d8e3e633ec4b630U, 0xbd8bcc753db2349fU,
  0x3db39d85bd3a453dU, 0x3dc57cdf3e27e677U, 0x3e923cff3def8673U, 0x3e7e74803ea51343U,
  0x3c7919abbd8c2821U, 0x3c69c538bcaffeacU, 0x3cb9c920bd97ff42U, 0x3e4b6f93bd44da38U,
  0x3e1c4d983e05cb57U, 0x3ea30cb73ea90c7aU, 0x3e9bdcba3ea68f3fU, 0x3efa48793ef0396fU,
  0x3dce77cc3df18250U, 0x3e61ea8e3e7eade3U, 0x3e2043293dad2134U, 0x3e9ce1903e9392f2U,
  0x3e90ec6a3e6f4405U, 0x3e9f650d3e51421bU, 0xbddbcf7d3e08f3a3U, 0xbccafe06bd8d3329U,
  0xbd284299bda18f11U, 0x3d71d3f1bd57358aU, 0xbaa490d53d690874U, 0x3d9101df3cd2ec9bU,
  0x3e1224ee3e7060baU, 0x3dcf20ed3e805b6fU, 0x3d0787dd3e26964cU, 0x3d901eec3e045301U,
  0x3e68bd793e086623U, 0x3de9eb0b3dfd1ae1U, 0x3de016023e57149cU, 0x3e65a83a3e1b8de9U,
  0xbd0bd0e63d7c898dU, 0x3dbc94603d872bbbU, 0xbd702f223c1b5948U, 0xbe134c0bbdfc1adcU,
  0xbe9b6cb93dd7fbe6U, 0x3c87a02fbd64b474U, 0x3c3af8473dd35d8eU, 0x3e2a3a263e3782c2U,
  0x3df895cc3e3ae2abU, 0x3d819b003e272a88U, 0x3df453183dd2591eU, 0x3ddb22713e1d48c4U,
  0xbbe98b5e3d7d2edeU, 0x3b89f0c3be1d82e7U, 0xbd032b27ba7c4b5cU, 0x3ddf087abb705b65U,
  0xbe2ae93ebc7a7790U, 0xbe8b6809bc9385b7U, 0xbd508a15bca81232U, 0xbd3547a9be58a589U,
  0x3c3fc3ff3ce91c80U, 0x3d55c36dbd32cb03U, 0x3dadda1fbb6d99b4U, 0x3dd495613d955b51U,
  0x3d806a8c3df74d87U, 0xbda9040bbca33e73U, 0xbdc8c00ebd2b8ccbU, 0xbdad50b8be21de38U,
  0x3d8fc9dcbe049cbeU, 0xbddb0602bdf9b150U, 0xbe15bc733c8b8fecU, 0xbe88d026be190b89U,
  0x3d2f69d2bdf8b732U, 0xbe09b42ebe335ee2U, 0x3c8002eabc023c94U, 0x3c5a00b2bd1316f8U,
  0xbd3c5221bd0d9bb6U, 0x3e18bdcc3d615d9bU, 0xbc99e8023a9171b7U, 0xbe0f3cacbdc26a14U,
  0x3a2134f9bdcc7922U, 0xbdee47dfbe2522f1U, 0xbcfd7bb33d9563d3U, 0xbd8d76fabd17a881U,
  0xbe38b1af3e0f830eU, 0xbd19c32f3bbaa0a1U, 0x3cc09a31bd3438ebU, 0x3c9354b1bbb9b2dbU,
  0x3c28a32f3ce37c5cU, 0xbd46cbf1be630dc4U, 0xbc56f8b7bdd93b20U, 0xbd4c8ff1bdf8e176U,
  0xbddddc743c323f50U, 0xbe19e08ebe392605U, 0xbcf76ae1be007c92U, 0xbe1c831bbe01b951U,
  0xbdf4c7353def4e43U, 0xbe114be2be176659U, 0xbe8d5cbabd10caa8U, 0xbe23d8783d924bc5U,
  0xbe274ce3be1c3ba9U, 0xbd050c8cbd8946eeU, 0xbcefe1223d687a5bU, 0xbe507140bd9a3affU,
  0xbe4bc9b0be8365c6U, 0xbe31cf2bbe5deb1cU, 0xbdf2291abe3ad3abU, 0xbddc8546be54beebU,
  0xbd3060b83d9b310dU, 0xbdde7567be223f4cU, 0xbf1f294b3df44f3bU, 0xbe0efc2cbf044511U,
  0xbe0ee68c3c4551c6U, 0xbe5f598fbe8b1ecaU, 0xbe35a055be723458U, 0xbbd75645be02f22fU,
  0xbd787fee3d2f7ee5U, 0xbe17d9483c4b258aU, 0xbe6b2766be538ebdU, 0xbeb764d0be9e1a4bU,
  0xbe304e99be87d459U, 0x3d9489423d0917e2U, 0xbbc9d12f3d99cdfbU, 0x3e3e037bbccf40c9U,
  0xbf18eb493df99ea3U, 0xbea09aebbf1d5465U, 0xbe2e9f69bcd1d14bU, 0xbed60ad5beba1cb6U,
  0xbdf1883ebe9eb820U, 0x3c434d83bcfa806bU, 0x3e6889313e195e01U, 0x3c7f08503dde06d7U,
  0xbe3e7343bdb9d52aU, 0xbeabe34fbe8b0a48U, 0x3c145f6fbe3abf4dU, 0x3d0ec08b3c2c3677U,
  0x3e51669c3ddb88eeU, 0x3e70251c3e65d1deU, 0xbecfd06e3cfa740bU, 0xbe8819bfbeaac45eU,
  0xbe92bb0a3d2d5824U, 0xbed054d2be626aeeU, 0xbdc0bc3dbeb00b70U, 0x3dec3e9f3e4f0048U,
  0x3e2afad3bc819f94U, 0x3e7a08fc3e16fabaU, 0xbd1f32d13d9edd91U, 0xbdf9ff48be3eb82bU,
  0x3e1ea4993d3d9c0dU, 0x3dc537f23c007b6cU, 0x3ea4ccf03e47283aU, 0x3f12088a3eb6adf3U,
  0xbea1cc5f3ea81ee1U, 0xbe389eaebef223d2U, 0xbdb1b4db3d0a7b39U, 0xbe9be5cdbe5a3414U,
  0x3c037b72be046f8cU, 0x3e454c3c3e6a4886U, 0x3e28e2f73e5fb1bbU, 0x3e542c7d3eaf4071U,
  0x3bc2aa4a3dbdcfeeU, 0x3e09f3e1bdee4a3bU, 0x3e23ac943d294211U, 0x3e1892c33e361095U,
  0x3e0487a73e405745U, 0x3eeb3d143e9dae54U, 0xbec754e53e111193U, 0xbe7e2770bf0237c0U,
  0x3c8242c1be226b5eU, 0xbeab1301bebb78bdU, 0x3e8cf059bb32b229U, 0x3e3229263ea2fbb5U,
  0x3e4b21d53e45c822U, 0x3ebc6cef3e91f0efU, 0x3da723b23e6b89daU, 0x3d6de5803c7d2604U,
  0x3e57e70c3d975238U, 0x3e1cc7743ded286fU, 0x3da1c5c13d8e19f7U, 0xbcae8e813db38a91U,
  0xbe4c9f4739eb39efU, 0xbe522532bee0c437U, 0x3e447276be70c0d1U, 0xbdfd18a7be836695U,
  0x3de9ecc8bcbdb3f5U, 0x3e83d02d3e2b6b91U, 0x3e2c80053e52c383U, 0x3e74a2103e4e277dU,
  0x3d94d2823e4a5f00U, 0x3d3e76babd0a5b65U, 0x3e1fc72f3db811e6U, 0x3e0894883a452c03U,
  0x3b9712a73daa7604U, 0xbc8012523e15e7aeU, 0x3cc2cdbdbe6e8d17U, 0xbe93180bbe84b3c6U,
  0x3e2ebd24be0d15edU, 0xbe394b73be0a6172U, 0x3e06963cbe2b0377U, 0x3eb254b73e1da2afU,
  0x3e6ea1013e97f3e5U, 0x3ed247d13e8eaa0fU, 0x3bbdcf953e0ee519U, 0xbdb40d2dbd3f9274U,
  0x3d2a550bbc7cc6b7U, 0xbab1792d3e0c3115U, 0xbdc032b73d2e8a4eU, 0x3daa091dbc9b424bU,
  0xbd8b937cbd8827b4U, 0xbe5f9ac5bee24700U, 0x3c670dcb3da260b2U, 0xbe1f4160ba47490aU,
  0xbd7bb6eabe79110bU, 0x3e6a2a67bd853e9dU, 0x3e33a9c63e855414U, 0x3ea3ef083e56afd5U,
  0xbd879c123e155593U, 0xbdb0b291be032776U, 0x3e5c1cd23d9d4edeU, 0x3d6669873db58df5U,
  0xbd7443813d190c00U, 0x3ca8b589bc363ddbU, 0xbe993e08be6ad9ecU, 0xbe93aa35bf1482e6U,
  0xbd8ddd0fbd7fec85U, 0xbe50d9fdbceee1dfU, 0xbe2d5dfdbe5b438aU, 0x3e07c1803dbd0216U,
  0x3e6cc0163e083566U, 0x3e9e2c723e6f9d98U, 0x3da158163e37b917U, 0x3b917b59bd57d4b3U,
  0x3d7a53713e140748U, 0xbd4b240cbb59d000U, 0xbc1a3797bcb26eaeU, 0xbd03e060bd55ecb8U,
  0xbe7a150cbe3c42cbU, 0xbe7482efbee443d0U, 0xbe0e0d6cbe025322U, 0xbe1dc52fbe19a957U,
  0xbd66e3d4be14513fU, 0x3d142c803d9508e2U, 0x3e68e1823dfd3771U, 0x3eccd8d73ea24d90U,
  0x3cc03c943e73aa2aU, 0x3e1ea2e03cd63e6aU, 0x3dc094c13dd82493U, 0x3dca66983e01b448U,
  0x3d19e831bd6114cbU, 0xbe05ee96bd4e57c6U, 0xbef3cb52be8af87aU, 0xbe89943ebe86bbe2U,
  0x3d10ef6fbd8b6bd7U, 0xbdceb96cbd9618e9U, 0xbd00ed20be544ee7U, 0x3d3e5933be43aca2U,
  0x3d856cffbd4f0053U, 0x3e3650463e3b47cdU, 0x3e0e872c3e49a9f8U, 0x3e8c70873e71adaaU,
  0xbcb68534bc120170U, 0x3cffe5103de0a575U, 0xbbfb2ed93d895600U, 0xbe0ab503bddb7e39U,
  0xbe81b3d3beda4a89U, 0xbe18da45be9dfb43U, 0xbdd4b29bbd54358dU, 0xbe8da8fcbde77154U,
  0xbe9d0729be7227ecU, 0xbdcc5b9bbe2cf346U, 0x3da078b63dabbc1dU, 0x3e07528e3cbc3210U,
  0x3e6cbf543e94dcbeU, 0x3e4567b83e89e655U, 0x3e320c503e4d3451U, 0xbda328f03d27b044U,
  0xbe439a7cbdb8d215U, 0xbe1eb36d3c70b8d1U, 0xbec4e8bcbed04d39U, 0x3db8473dbc87f109U,
  0xbe1b4fbdbde025adU, 0xbdd65f31be30f4aaU, 0xbed7af02be86c0cfU, 0xbe88833bbeb74e8bU,
  0xbd9a0bb0be0b9a75U, 0x3e210c983d9618e0U, 0x3ea883be3e204764U, 0x3e94f13c3df822caU,
  0xb8c83e283e4426e9U, 0xbd840e4f3b95257eU, 0xbc8ac3d0bda62167U, 0xbe71b5a0bde8d85fU,
  0xbeb08facbefaaf17U, 0xbcb712e33e092de3U, 0x3d89b4fe3d52417cU, 0xbd8f71b0bca5bd35U,
  0xbe34c518be54eb5fU, 0xbe598151be7ed751U, 0xbe769b4cbdb4028eU, 0xbe24901cbdd25401U,
  0x3d94349dbcce84ecU, 0x3dae3c0b3da00694U, 0xbb63b6273d30b080U, 0x3a9761ee3b3501b0U,
  0xbccffa9cbd00c51cU, 0x3bd2dbafbdceaf4aU, 0xbe8492b3bea900adU, 0x3c480f18be70bf71U,
  0x3d1cf074bda029f9U, 0x3d862609bdeebffbU, 0xbd5d837b3e1fbe47U, 0xbc48d6b03cd77c3fU,
  0xb9b7c7613d58183cU, 0x3d3d54a4bd9c6ad7U, 0xbe0ebb35bd50e310U, 0xbdf0de12bdb0fe0cU,
  0xbdc44a8c3d442282U, 0xbdd3629d3c863fe5U, 0xbe4a8e58bc92a41eU, 0x3df4e1a2bb14002bU,
  0xbe8450e2be9af048U, 0x3d9b7068be7f06d2U, 0x3be219503dae280cU, 0xbd8ac11a3db93c02U,
  0x3e12bfb2bd031c4cU, 0xbc28ec383d9d8103U, 0xbcb215b7be0769dcU, 0x3ca07ec43ce5c00eU,
  0xbe05eaadbe6ed34fU, 0xbda0caffbdb2a160U, 0xbc2b0e43bd158262U, 0x3d00e7f6bd41d5c8U,
  0xbe2bfa0a3e19accbU, 0x3db5cb90be179468U, 0xbe201578be0ffce6U, 0x3d173f3cbd378a89U,
  0xbcb344d03c6d40b0U, 0x3d9251b13daa79c0U, 0x3db88c413e39bf61U, 0x3d99a4ee3e05f8dcU,
  0x3d8873093d4eb5b8U, 0x3db16f2ebd450446U, 0x3d8040ee3e253ce0U, 0x3d1f85003e623132U,
  0xbcf086313b77685fU, 0xbd804e9f3da411bfU, 0xbd2480a23cacdc62U, 0x3d40df06be10e2a3U,
  0xbd242ce23e130a83U, 0xbcabc8b0bd251486U, 0xbd9b28f53d84aee2U, 0xbda003c53a7b1f00U,
  0xbe394d72bde04f79U, 0x3d0f6fb8bd9a00e1U, 0xbda6b1203d546852U, 0x3d7abbfebdf7ded1U,
  0xbe8674833dd1788dU, 0xbb90bd003cf3f2fbU, 0xbc1de96dbde7d5a1U, 0xbd1eae31bd6a7666U,
  0xbe129156be3fde7fU, 0xbdbff283be030b53U, 0xbccb52ba3c79c130U, 0x3d0c0c903d778efcU,
  0x3d059752bd9da347U, 0xbd4392a93d89866aU, 0x3d1a549e3d89b808U, 0x3d84bc603cdecf8cU,
  0x3d9512debc83355cU, 0x3c980870bd5262baU, 0x3cc25a99bda4d2b1U, 0x3d71fc27ba10a1e2U,
  0x3d8defa4bd9df304U, 0xbd016e1cbdad6f08U, 0x3d8dc6503d2cb76cU, 0xbd75c8993d9a472cU,
  0x3d918ac8bc3102e0U, 0xbc4953b0bd083135U, 0xbd4e7b873caecfd0U, 0x3c332ef0bd5822edU,
  0xbd408d93bdc6e3a6U, 0x3de332533e6010b0U, 0x3d07183e3e0c1ab4U, 0xbda4fdc2bc3d18dbU,
  0x3b492c3ebbe9422eU, 0x3b8f22afbc267aa5U, 0x3e458cd33eb94d46U, 0xbde3e59bbe01c43fU,
  0x3dc37c5db9bb41afU, 0x3e04a32f3d872eaeU, 0xbd6612f33d91af80U, 0xbda10d7d3d39734cU,
  0x3cf8df1c3c67af38U, 0x3c47bb173dc2a3a8U, 0xbe41fb4fbdaf5008U, 0x3e1572ce3d2588d0U,
  0x3e3457fe3e14c70bU, 0xbbc259e53e097999U, 0xbe1fc212bcce5538U, 0xbda47e5cbe547a59U,
  0x3e33da7b3d56f344U, 0x3d344ffb3df8992eU, 0xbd9cb0c5bcecfad3U, 0x3de80d483ccb436cU,
  0x3e0edcdb3da33b4aU, 0x3d07d702bc8df0d4U, 0xbd0dcff03d918efeU, 0x3dd50dd2bd7e0ab2U,
  0xbe0e67033e2e9b51U, 0x3b8c0a05bce9d2c4U, 0x3e102cdc3d050f39U, 0x3dc40c813dddf014U,
  0xbb3b2bc3bcc73f83U, 0x3bb7fd923cde16adU, 0x3dd80c07bd8d8525U, 0x3d66b7ab3e2dda99U,
  0x3e099aa23c7f87f0U, 0x3d622f713d8ff26eU, 0x3e441dfe3d483a80U, 0x3d9271463d7d3a72U,
  0xbd7d88183d52d468U, 0xbc2284b9be63f17aU, 0xbdcf280dbe3a4275U, 0xbd9bc3f23d8ff0ecU,
  0xbe190152bdfdb17aU, 0x3d06ba41bdaed3b2U, 0xbde5bce7bcdcacd4U, 0x3c94bb9d3d5e850bU,
  0x3d30fdf13d07c3d5U, 0xbd399dfb3bb9cf91U, 0xbe18ccaabd2f6addU, 0xbe0507e4bde5f044U,
  0x3eb2f8033db4d278U, 0xbd90e8093e5f51caU, 0x3d7955bcbd24d9adU, 0x3bc52687bdd019ecU,
  0xbe669d6dbdfbef27U, 0xbe0ac50cbe702178U, 0xbe70fe1dbe3755c0U, 0x3d9b19c1bdc5b950U,
  0x3df543683e184998U, 0xbce95fd6bda1f55bU, 0x3d42ca283c6842d2U, 0xbc70c9463d319d82U,
  0xbdc816753db9d822U, 0xbe8cec8dbe1eea08U, 0x3f08ec79bd9c8395U, 0x3ddb592d3ea69cb7U,
  0xbdef7bdebd76e89eU, 0xbeb66eeebdb596f0U, 0xbe92844dbea1561fU, 0xbe37f5b0be6f0ef1U,
  0xbd61c7c3be1b4c2eU, 0x3d47093d3d9113d8U, 0x3e67cec93e29a815U, 0x3eabc4783e8fa4fbU,
  0x3e2b986d3eb7114bU, 0x3dacb7433e37acf6U, 0xbd224fc23d454ac8U, 0xbe3439b4be369a45U,
  0x3ed40ac5bc094f23U, 0x3e02a7d43e8ccc32U, 0xbe6befd73d31165bU, 0xbe8d4fb33c3c5e82U,
  0xbea567c5be1911a8U, 0xbe51e0c2be7a6093U, 0xbdbb306c3d8e5f5eU, 0x3dc93a363c6ff06bU,
  0x3ea2cf3e3e371cb1U, 0x3ed8c9023ebf6996U, 0x3de84af83eaac30aU, 0x3cbcd8a93d422325U,
  0x3d8cdf223c46ca3eU, 0xbdbd3722bc307d85U, 0x3eb942213d180ec6U, 0x3de53f1f3dbe6e05U,
  0xbe491b66be5d8ef4U, 0xbe8ed534be19a196U, 0xbda09a01be7b84a6U, 0xbe70e22bbe2822f6U,
  0xbd1bdbf03a5fd926U, 0x3c99b0f53d904216U, 0x3e42fba0bc32719cU, 0x3e35e8d73ea3d7cbU,
  0xbd6603df3e4fb2e7U, 0x3d68eed9bcd9893dU, 0x3c0d83a2bbdd9ed7U, 0xbd63a2343dbfba5dU,
  0x3e1447d93d0f541dU, 0x3e8aa1dd3e5e40f8U, 0xbe013e77be17263cU, 0xbdf0ea4fbd4235c5U,
  0xbce2bf72be5bc293U, 0x3d0da74e3d0a3fc1U, 0x3da2b68e3d8acbcdU, 0x3dfba52b3e106177U,
  0x3e058e893dfb721aU, 0x3e2b08d23e953208U, 0xbd0b7bf5bde23b73U, 0xbda0b7e3be20c847U,
  0xbd938d30bd752dc5U, 0x3c532822bc320bdbU, 0x3f0345ec3e3cfecaU, 0xbcd3aae63e966b2aU,
  0xbe87fc99bd76d2b2U, 0x3d8110c9be524413U, 0x3debc603be108a44U, 0x3c9da3783e24d7a5U,
  0x3c5074343d3de3f8U, 0x3d99535a3ddf2cfbU, 0x3d9070c93e2afef9U, 0xbc9df9ce3e48bdadU,
  0xbe7a403dbd9eac33U, 0xbe0cb3debdb7d0a1U, 0xbe049b3abd6874b1U, 0x3e0239f0bdf0edf0U,
  0x3efeb4c33e2253dbU, 0xbbd528aa3f1180e8U, 0xbe951d1bbe45af2cU, 0xbd560095be63cf65U,
  0x3e3881e93d30db9bU, 0xbd2ed7c63e34e8f5U, 0xbd908c0f3d9ab407U, 0xbda875d4bc112683U,
  0x3dce9a91bd86535cU, 0xbc4e67fe3e0226b0U, 0xbe06daf2bcbcfd73U, 0xbb96f79e3d182975U,
  0x3d32ffeb3cb758d1U, 0x3e1f90f3bd90d27fU, 0x3edea7c73ebec275U, 0x3d3041443f0b4df0U,
  0xbe41490dbd618fb4U, 0x3d8d164bbdf32c7dU, 0x3e528a593e5a8fdcU, 0x3ca6d0cbbcc0db6eU,
  0xbd8576b2bd4aa522U, 0xbe19c8f3be210a69U, 0x3d8f87d5be54b41dU, 0x3d5fa93b3e59a410U,
  0x3c902b80bd8c5ed1U, 0x3decd750bc0c51ccU, 0x3c3d1e8c3dc6d48cU, 0x3c933fb4bd58aa90U,
  0x3e4568f7bded1a62U, 0xbdfe36993eb73e55U, 0xbdf86891be0c25f9U, 0x3d8f3b1bbe901e99U,
  0xbdec7d4e3e004230U, 0xbda50a9bbded5cc1U, 0xbdd644b8bde39615U, 0xbda20a16bd86d807U,
  0x3ea8df6a3d062404U, 0xbc7c10ae3e944aa7U, 0xbdaa7c493bd69ed0U, 0x3dfc3304bcae147fU,
  0x3c9286493dc8dbf4U, 0xbe161a153ced66e5U, 0xbd1f90b0be1281d2U, 0x3e8ac79a3e8c21a3U,
  0xbdcf17403d5dd7cdU, 0x3cc0f17bbeaad95fU, 0xbe4593513c2b1280U, 0xbdd4c9aabd11dfbcU,
  0xbdb38f39be07e4b2U, 0x3dbc0a3f3c2c1ac0U, 0x3e85e1473dd3c829U, 0x3dd6dc163e30cc58U,
  0xbcc703c53cabda5bU, 0xbcef28c43dcdf6e8U, 0x3d8a8f15bcc69dd6U, 0xbde2ae8fbca5b821U,
  0x3d2e37fabe3b12bcU, 0x3e2bf0083edd41b9U, 0xbe1969dbbe34470eU, 0xbe09821ebea66f1cU,
  0xbdd72a89be15025fU, 0xbe6082ef3d87abdcU, 0xbc0922d9bdb48b6aU, 0x3e2484d73dea48f5U,
  0x3ea3fa3b3e864dcbU, 0x3d3144463e3ac02bU, 0xbd59d5fabd141595U, 0x3d05d172bd5fea1bU,
  0xbc97e841bc6fd5f9U, 0xbdc35c77be3b6b30U, 0x3e7808c43d7b6df2U, 0x3e50ab133e097175U,
  0xbe4e47bbbdf8df91U, 0xbbc322e5be8b5ed2U, 0xbb75af933daf946bU, 0xbe0e3863bd2a7a8aU,
  0xbce723d0be642b0eU, 0x3eb7fd2e3e42a311U, 0x3e4afcdd3ebc77f3U, 0xbe075f91bc98a5b2U,
  0x3d7132563cf9241fU, 0xbd6d35b63e012344U, 0xbd17b11fbcd43f56U, 0xbc82d53a3d033eefU,
  0x3ebed0f33e30aaa7U, 0x3ea2c07f3ecd017aU, 0xbe52f8523cb69eb0U, 0x3ddc590ebe0f29cbU,
  0x3ce3897abd84431dU, 0xbe01cd613dac2b19U, 0xbb26cf70bd0a005bU, 0x3e8d8cfc3e316940U,
  0x3dc5a6333e7eed36U, 0xbd262b95be2fac10U, 0x3e18493c3d4a3c45U, 0x3e0147fa3be95c87U,
  0x3da8b242bcae9fa1U, 0xbdd944febdf46aaeU, 0x3e49ba1c3d8fd282U, 0x3ea2cca53e798f85U,
  0xbb8f76a83dcb9f0cU, 0xbd3db3d2be871b85U, 0x3c8d460c3cfd5febU, 0x3d159e0e3e078834U,
  0x3da6aa70bd15f942U, 0x3eb695b33e837f26U, 0x3d1930943ddc1b05U, 0xbd420c2abdc4289aU,
  0x3d8dbb6abd48b715U, 0x3e23bf05bbb7e828U, 0xbd6e19823cd2d70fU, 0x3d2e489a3d4f7032U,
  0x3e75a7673e2a8b49U, 0x3e3731a3bc5d9707U, 0xbe7805bfbdca1534U, 0xbe0c98aebd467bdcU,
  0x3cb273d6bc9e1b80U, 0x3d2030683c224879U, 0x3db1718b3cae9db6U, 0x3d1dfb803e1cf368U,
  0xbbb101663d953219U, 0x3ccfefa5bd985434U, 0xbccc6be23d53b971U, 0x3d3d4d5f3da0e071U,
  0xbd65025f3d828631U, 0x3e8c39973dd421b9U, 0x3e690abb3d4f2bc9U, 0x3cf65e103e705ca0U,
  0xbe501c8cbdaaf8b2U, 0x3deecb853c51f834U, 0x3e6b042a3d211c7cU, 0x3dc204db3ce86895U,
  0x3cd148183d3e57d1U, 0xbd7f8d783d3cadcdU, 0xbbeb379cbd240106U, 0xbda15abc3b7f7312U,
  0xbd75b6aebd468fb6U, 0xbc11b3fdbe056d7aU, 0xbcb05ceebd25e5daU, 0x3e2b7aa03dd32f40U,
  0x3e83219f3e4f34abU, 0xbe0ac2d73d0e18d4U, 0xbc8f1691bd93af9eU, 0x3deac6f13e76e8deU,
  0xbc1017803dc286d9U, 0x3d99381f3daa0f8bU, 0x3d39c27f3d1140f8U, 0x3ce872423cf7161fU,
  0x3df8c4b73de568abU, 0xbae47d6ebd8b0c7dU, 0xbd46f29ebe026126U, 0xbdb48974bdaaed9eU,
  0xbd99aa2fbe058556U, 0x3ea0c1913d1fb903U, 0x3e3cad033e685bafU, 0x3cb5e4e6bd5c3a15U,
  0xbc5a5e39bdb4374bU, 0x3ea1c8273eaccd45U, 0xbdd3ab513e55f78dU, 0x3dddc3cd3cefa0c9U,
  0x3ce7394c3e159cecU, 0x3e2a0aa23dcae88cU, 0x3d9b89363e0be8fdU, 0xbd6f6fd83d6bbaf6U,
  0xbe6076efbe1a87ceU, 0xbe7789ccbd6cc5e6U, 0xbdb160bfbdcc2560U, 0x3ea5a21d3e14dc53U,
  0x3dbaf6043eb77364U, 0xbdf100e3be7000d6U, 0x3d96a7eebd61157aU, 0x3ed110c83e47ff2aU,
  0xbcb092f63ec0c273U, 0xbe0fe1b2bda7551bU, 0x3cb3ad813e5ed685U, 0x3d851b613e0e0badU,
  0x3d218d783d04346eU, 0xbe2f5084bc008684U, 0xbda5490bbd1cddfaU, 0xbdb836e5bd4af63fU,
  0x3e16bd793d341be9U, 0x3ee811083eab56acU, 0x3e9d28783edd6e2aU, 0xbc47fd18be8b68b5U,
  0xbd5e1101bc8831ccU, 0x3e275d3bbcfbb9eaU, 0xbd91db143e431a5bU, 0x3dbbf36abc3817acU,
  0xba684adf3dbcdca1U, 0x3d58783a3dc98215U, 0x3d23b6283e0bac81U, 0x3e096c9bbd2422aeU,
  0x3d76f56e3db2b5feU, 0x3e3f72b33e3ec2deU, 0x3e67a3ee3e98eba8U, 0x3ee042893ebbc3d5U,
  0x3deebd723ebedac3U, 0xbc49c380bd8291c0U, 0xbd22db65bd1d6714U, 0xbd80546b3e517b69U,
  0x3e4f040ebbe29ac0U, 0x3e7c951e3e815302U, 0x3e3f4fdd3e53b1e9U, 0x3e78becb3e537d98U,
  0x3e6272573e9da2edU, 0x3e879b903e9ae4c9U, 0x3e8e6c203eab56c2U, 0x3eca4c993e6e33a3U,
  0x3ebd791a3ed5c7a2U, 0x3e8631b03e660bedU, 0x3d655a9c3e775640U, 0xbaf69880bd3c17ebU,
  0x3cdac5bc3d39b740U, 0x3e1af062bdaf1c76U, 0x3e127de83e80aa49U, 0x3e69cfb73e28196cU,
  0x3e5a9b4f3d9a0c8dU, 0x3e4ff5fe3e176475U, 0x3eba31d03ecc4bf7U, 0x3e8744003ee1192aU,
  0x3eb60ad43ec898a1U, 0x3e8390f43e879afbU, 0x3ea550a43f06700bU, 0x3e44dac43e47f247U,
  0xbc96dc2e3d2b0060U, 0x3bb97f503d1a7ca6U, 0xbd909e90bbc26040U, 0x3dab1c90bcfbe930U,
  0xbdf8b93cbdc94242U, 0xbe326ac2bd61ecbbU, 0x3d14cd98bdc28872U, 0x3db2925c3dc31368U,
  0xbdd11d4d3e6f183fU, 0x3d9523113e898d3dU, 0xbda213243d3c7014U, 0x3d908f71bc81eaccU,
  0x3c19c78e3d4de3adU, 0xbdc1c365bc75f888U, 0xbda3f2e43d0f3f9cU, 0xbda5ae78b9247600U,
  0x3d6ad0e0bd97cc10U, 0x3d9716ce3da638a0U, 0xbdacaad03aa4b300U, 0xbd74aa7cbcd862ecU,
  0x3d14f1d83da54bf0U, 0xbc0173283c906370U, 0x3d8823c13d77ce5dU, 0xbcf45d09bc7c5224U,
  0x3c5741e03d8eb5eeU, 0x3d58046cbd02e003U, 0xbcfa2734bd33f68fU, 0x3d04b21c3d888934U,
  0xbd3f8ae13d04da76U, 0x3d1d85a8bd3d8b61U, 0x3d9351ca3d170a8aU, 0xbd73ee1a3cfb9c1cU,
  0xbda57a0ebdaf49ceU, 0x3e841d433e608ce5U, 0x3de8eadf3e5cdca7U, 0x3dfea4633caf78b3U,
  0x3e2669d53e15e5e7U, 0x3e67f5563bd9d709U, 0x3dc110e73e9d1cabU, 0xbd40ac12bde6cc57U,
  0xbd032cb33b9b5146U, 0x3df07af53e504ed5U, 0xbcd58a62bd2ebf31U, 0xbd435bf33a2f5100U,
  0x3c0b37a0bb8e25b0U, 0x3db711ee3d4f0a17U, 0xbdaa799a3da53255U, 0x3d4f60c3bd74f539U,
  0x3d6b2bee3d0e7587U, 0x3d987df93d138c10U, 0xbd5159283de387aeU, 0xbca110ddbc498a2eU,
  0xbdfeabd9bd9e95e2U, 0xbeb5920bbe2f1040U, 0xbc2348dcbe0a34d8U, 0x3e1784d8bd673585U,
  0x3e2fdb883e8169d0U, 0x3b8ae8f0bd9f34caU, 0x3dac26a8bd4024e1U, 0x3e5529193e18fab6U,
  0xbe012809be3a084dU, 0xbdda4de6bd971352U, 0x3e7caad4bdecc183U, 0x3e0c466b3d5e7f14U,
  0x3ec805733e4aea6bU, 0x3e49de3b3e6c8ee0U, 0x3e1028b33e43027fU, 0xbdf06e1bbd602f65U,
  0xbdf6b1e0bdc40bfbU, 0x3d07dfc0be65e324U, 0xbd61be4b3d6af9d1U, 0xbda06591be1d8d02U,
  0xbd9d4cf0bd84e7d5U, 0xbe14821d3e8679fcU, 0xbda4358abdbafc05U, 0xbdf03a183b518b56U,
  0x3e57e55c3e4f442cU, 0x3e66a5683e3430f3U, 0x3e39d58f3e78c4cdU, 0x3e2358d23e81bd3fU,
  0x3e165f323e4c592aU, 0x3d840d6dbc7eb1a6U, 0xbd614c603d3d517eU, 0xbe68b1b7bdf0c318U,
  0xbe42529fbeacdcfeU, 0x3e296b8d3dd01f77U, 0x3d441ab0bbbe7d30U, 0xbda458173e1f85a7U,
  0xbe5594f93e135c81U, 0x3d2ef3cbbd317d27U, 0xbcdef0683cd908d0U, 0x3cac5645bd82bd5aU,
  0x3e26c59e3d972987U, 0x3dfd8ef23e476a82U, 0x3e2d005e3e08a6d0U, 0x3de308d73dae91e4U,
  0x3db0748b3cb25d84U, 0xbe785caebe1840cfU, 0x3c7f2828be2b219cU, 0xbe23b4d7bcabd152U,
  0x3c9856fbbd8196fcU, 0xbd910588be38874cU, 0xbe0c0b77bbbae499U, 0x3d738d4a3aa50a70U,
  0xbda48310be0b536eU, 0x3bb1e89fbd30ef31U, 0x3af4732f3d1a9e9eU, 0x3d7cbb2c3d0dbf2cU,
  0x3da9f7813ddf04a8U, 0x3d55beb43dc78173U, 0x3de6c00b3cd57fc8U, 0xbd9a5834bd4e9cecU,
  0xbcdf244ebeb5e5afU, 0xbe1b6fedbe4459f3U, 0xbe031a1c3b011906U, 0x3cf10a7d3dd28189U,
  0xbc66a4f43e3170bdU, 0xbd2e952e3cf1c3daU, 0xbd9de92ebcf3321aU, 0xbdb0ca803c8a0534U,
  0x3c96574f3cfa7c4dU, 0x3d850500bcb9d816U, 0x3aa8bfa4bc0ff199U, 0x3e13866b3dfbca4cU,
  0x3dbfd0d8bd381561U, 0x3d27af8a3cbe86c5U, 0xbe2e51cdbe1da250U, 0xbd8a0434be730aabU,
  0x3ca99f323e1a607cU, 0x3e0283223d099601U, 0x3e121b223e8846b9U, 0x3dc15dbe3db2f6e4U,
  0xbb775ff23d5608bdU, 0x3ca4c5b43cbf773cU, 0x3d6a213a3d41c648U, 0x3c102e863d3d5e51U,
  0x3d2ea3af3e03b11cU, 0x3de020973cbde645U, 0xbdc78dc5bc3b8fccU, 0x3df54c6c3d88ad44U,
  0xbe945822be4607caU, 0xbca57536bdcc6410U, 0xbdcaa6e63dbb3a50U, 0x3e6a32f0bd3b06ecU,
  0x3e3c1a293e29fe13U, 0x3d043c373e0c8abfU, 0x3bd19bef3bb11512U, 0xbd13c31fbd6ab198U,
  0x3b5571f0bd3284feU, 0xbc5f78233d5bdd4eU, 0x3c2d003c3dbce6a5U, 0x3daf611abc52ee03U,
  0x3da359053dee949bU, 0x3d882598ba80aed8U, 0xbe841c303be40010U, 0xbe1e74bdbe3840b0U,
  0xbe0b5e7ebd408e92U, 0x3dbc824e3e1b9528U, 0x3e139e493e3ebed6U, 0xbc81771d3e357b6dU,
  0xbb50974a3d0f7528U, 0xbd312d9e3c81736bU, 0xbd9860a0bb04b7a8U, 0x3bda9f683e111f77U,
  0x3db8a450bd6d3ee1U, 0x3df526433dc04a25U, 0x3e1fe6ec3ddd4c24U, 0x3e24116d3e547e35U,
  0xbefe50c9be380a59U, 0xbd3eca9bbe8a0656U, 0x3e17bc83bdac5985U, 0xbbebc003bec959c1U,
  0x3e4041373d9f18d0U, 0x3da91ddf3d240e99U, 0xbd1056eb3b3429beU, 0xbd659150be12add1U,
  0x3d2d6218be03ca5fU, 0xbd3d3df23dc3dc40U, 0xbdb29bb4be44123bU, 0x3def9817bd4de0ecU,
  0x3e58447f3e0b5c12U, 0x3e79f8123e9a3bc2U, 0xbe96c1e53de8ac0aU, 0xbb4ce0f2be2d91deU,
  0xbe08fc433caf3a0eU, 0x3d4f8fb9be0eba20U, 0x3d39fceb3d8a901bU, 0xbd8a848ebda161d8U,
  0xbdcc62c1be19ddb9U, 0xbe787a35be1d390dU, 0x3d8e0950bdb6e250U, 0xbcda7d66bab655a0U,
  0xbda56269bc503e38U, 0x3dd63a7c3c1f4192U, 0x3e8ce1823c994cfbU, 0x3eb7d5883e97da92U,
  0x3e39b3bc3f148205U, 0x3b99497fbd2eec6fU, 0xbd9a02863ca739faU, 0x3da6bc6dbda2908aU,
  0xbe11978abe86fa22U, 0xbe8a58adbe1d1a8aU, 0xbdfaf4d3bdf14cbbU, 0xbdad352ebe35d02cU,
  0x3e1934ab3d224cb6U, 0x3d110cab3d1aabadU, 0xbc89c0cebd15fda9U, 0x3d3d279cbd34876eU,
  0x3d9d5d2e3cf005d1U, 0x3e6799ba3e5f0a2cU, 0x3ea70d3b3eaae828U, 0x3e6406033eb21720U,
  0xbe5868debd31f7daU, 0xbbf831b6bda77535U, 0xbe7cd6eebea28a59U, 0xbd6e4e21bd5702cdU,
  0xbe574c6ebe1033fbU, 0x3ca730d1bc7b10b7U, 0x3e24ec7a3d85afc2U, 0x3dfd1dd83d7f4fb6U,
  0xbd3379243b327d87U, 0xbcb1b644bc9a61d8U, 0x3d925cf4be1028dcU, 0xbd704c15bdbe96c6U,
  0x3ea2c2a33ddde7b6U, 0x3e741e0f3ed78a03U, 0xbe5d9cd4ba9dddb2U, 0xbd2f8bd0bdff25ddU,
  0x3d5afcb2be222957U, 0xbd27b8d9bdfff0c1U, 0xbd37ef3bbd5a038dU, 0xbce7f83cbde1831bU,
  0x3e553d33bd3f63adU, 0xbc8373cc3e4bc03fU, 0xbe50b6f6bc7a310eU, 0xbcf02931bd87112aU,
  0xbe33649dbe0755c5U, 0xbdf47e57be4e07c9U, 0x3e8350093dd9a690U, 0x3e9a26603e858958U,
  0xbe5242d03e0ace9eU, 0x3cf23746bd356965U, 0x3d669897bc2ca64eU, 0xb9425eb43d9ab0cfU,
  0x3dfb267cbd86e760U, 0x3d819a2f3cf877aaU, 0x3dd20d913d789725U, 0xbdb888d03db5d428U,
  0xbd3ee4db3dbec9e2U, 0xbe177f5ebe120a64U, 0xbd9e5580be4b0755U, 0xbda92220be7d2de9U,
  0x3ec0e2923b14c731U, 0x3e96d19d3e8ac901U, 0xbe40cc443c1c7068U, 0xbdafb8813d1f2902U,
  0x3c005bd13c7b79d0U, 0xbd43182f3d029cccU, 0x3e6ddc773d672242U, 0x3e81ec543e9265b3U,
  0x3e08b8653e1045b0U, 0xbdba7d4a3da20ee8U, 0x3ba11195bd318900U, 0xbd624a56bdd642ffU,
  0xbdd6278abd7f2f29U, 0xbd81b422bd3237d5U, 0x3ebc855d3db47953U, 0x3e5ac5443e5ef297U,
  0xbd514bb6bd4f4b06U, 0xbe39efc5bdfdb642U, 0x3de85cdc3c75091fU, 0x3d29a1e2bd834cc7U,
  0x3e3a41133db22533U, 0x3e1d3c873e644321U, 0x3d9da2023e6c407eU, 0xbcc8545fbda27d84U,
  0xbc34927a3b931132U, 0x3bec60a83cc760e7U, 0xbd81d40fbd6b6912U, 0x3dde268a3c9653c2U,
  0x3ed560fc3e18107dU, 0x3e8614a03d827968U, 0x3ca6f3c6bda959f9U, 0xbe78e21bbe070874U,
  0xbc592a8bbd873b5bU, 0x3e5b68de3dbb198fU, 0x3e788f063e01566aU, 0x3e505a533e8da8d6U,
  0x3e23aa533e6ea592U, 0x3cf28a383c8b9486U, 0x3e251dbd3d53779eU, 0xbd6d1e883e0363bcU,
  0x3da08380bd7fdf79U, 0x3dee504f3e2a03c6U, 0x3e0fd7b63d470b2fU, 0x3d1717f63eb83555U,
  0x3ceca093bc681a40U, 0xbe62e071bbc1d352U, 0x3e06d67ebc21fde3U, 0x3e68a6043dccd5b7U,
  0x3e5a975e3dd88469U, 0x3e2661a23e400822U, 0x3d9152233e7136b9U, 0x3dd9a0d43d91ab0eU,
  0xbcc0cc163d95ed05U, 0x3d2100643dd5d61cU, 0x3e49a02a3e002561U, 0x3d9a4e663df718e0U,
  0xbd2cc5c03ba2dffaU, 0xbdd8203d3dc50c09U, 0xbcff4e40bd871d81U, 0x3d7b25573daef33fU,
  0x3e70c9fb3d6b830cU, 0x3ea09b673e6fbf17U, 0x3e12bace3d519e10U, 0x3d9cf21c3e14143dU,
  0x3e184a443c1f8da3U, 0x3db5d04f3ce66a6bU, 0x3e0d279e3d08a6f9U, 0x3a40dfbc3e0ff761U,
  0x3c37eef33db4b2ddU, 0x3e393a653e21048bU, 0x3e13c4afbc273ac3U, 0xbd7a36723e25f358U,
  0x3d225ac1bd0fde7eU, 0x3c777f383e0543dbU, 0x3e88c5513d1d406dU, 0x3e87ea0a3ea21ea5U,
  0x3e0c1e913e283648U, 0x3d74a5943e00b3aeU, 0x3df12b043da5e68cU, 0x3cb6e5d63de02bb2U,
  0xbd2f708cbc4e03f1U, 0x3d6d9cf8bc9fd580U, 0x3daa7e00bd8f682dU, 0xbd92dede3dfeccebU,
  0x3d18c57dbcf489dcU, 0xbd140535bdcd77ffU, 0xbb8cb940bd88ab99U, 0xbe2052f83de8e5beU,
  0xbdc82db7be12c141U, 0xbc19a270bd941592U, 0x3e0590893d82c107U, 0x3db3e5023d0e5dc3U,
  0x3e0e8fb83e44e500U, 0x3dd3d76e3d596ed3U, 0x3d6c0fc13dd45d0eU, 0x3dbef60e3df8086eU,
  0x3e43f0ea3ccf36a6U, 0x3d8098893e023b21U, 0x3c8368c0bdcc92d8U, 0x3d85c014beb23a5aU,
  0xbd9655d0bd2806c4U, 0xbeb0c91fbe25e839U, 0xbee12f94bec8c202U, 0xbe8aa6c7becd5822U,
  0xbe0269dbbd7c0e42U, 0x3d293130bd901512U, 0x3e1ac4f93e3a84e4U, 0x3e2c40ef3e21e60dU,
  0xbda9e58a3e2502e6U, 0x3dc1ac813db98b08U, 0xbd18c0903cd41a65U, 0xbd6fc09fbe0d4250U,
  0x3e86e42e3e601b54U, 0xbd14eb853e35ee7dU, 0x3da8daeabdab2688U, 0xbe7fdffabe5b9faeU,
  0xbf25041abee8604fU, 0xbea2f915be9e5fb8U, 0xbead4503bea1df73U, 0xbe609557be8ca076U,
  0xbe836897be543d29U, 0x3d03aa19bda12a79U, 0xbe2d8c54bddcc8bcU, 0xbe49bf21be19c470U,
  0xbef26dfdbe9aef6aU, 0xbee1b2f3bef1f5e1U, 0x3d606dc7bebd1eddU, 0x3ca97ba83e4d4c29U,
  0xbc8bd3fc3c5f2f00U, 0xbdca7dfbbd77f54dU, 0xbe48bb78be980810U, 0xbe2e9210bea94c36U,
  0xbe89129b3cb43721U, 0xbe46ea38be7f871cU, 0xbe8b8888be41470dU, 0xbf2577bebeafad05U,
  0xbee0db65bf357fa0U, 0xbed18766bea45041U, 0xbebca7edbeedc34dU, 0x3dbcabe0be97fb40U,
  0xbcdc9aa73a332c80U, 0x3d83b58837963000U, 0xbd6432fabd09b4e8U, 0x3c55c980bcb39e9cU,
  0xbcce29463c5c2c14U, 0x3d9f9d9e3d101e15U, 0x3c98931b3e0d9068U, 0xbde894afbe663176U,
  0xbd1a60f63d1ddb54U, 0xbd0d5600bd8109b1U, 0xbde36226be9f137dU, 0x3dabf48abd580a5eU,
  0xbe333aa7bd1889e4U, 0xbe3164ebbe77cc8fU, 0x3d86d81ebda8b0cdU, 0xbd5f8db03d6ae208U,
  0x3c2f0b70bce832b0U, 0xbcc84e3abdaec6b7U, 0xbd5a28713d8c8ffcU, 0xbdadcfe63d7e6a7cU,
  0xbcdd1b343d71b410U, 0x3cb849b0bd49bba1U, 0xbe036f0dbdaed6a8U, 0x3d8b37583db9f23bU,
  0x3da0cd783d9d2e08U, 0x3d0355ec3d7dd3ecU, 0xbd073c5c3d8f3c30U, 0x3c8e296cbd8ba863U,
  0x3d6b90983d7bd560U, 0x3cd224e4bd5a94c2U, 0x3d03dc12bca8411cU, 0x3cc4a18c3b3851e0U,
  0xbdcf20a3bd70a4ebU, 0xbe2e65debe27f11fU, 0xbeaf82c0be28e1e0U, 0xbeaa2d0bbe488994U,
  0xbea66372bedba7c0U, 0xbe340f9c3dc9e24fU, 0xbe9b01adbd13d449U, 0xbea1ad45beb04d46U,
  0xbe0dea8ebe571594U, 0xbe847120be92251bU, 0xbd87f22c3da2dc52U, 0x3cca9ea43d909dd2U,
  0x3da03d70bcb3f080U, 0xbdbe262fbd2a28d4U, 0xbe71baadbe75d243U, 0xbec3de3bbe913b24U,
  0xbeb6cd5abef35f94U, 0xbef37b3dbeb9bf7fU, 0xbeacf861bed8cf2cU, 0xbe5c96f8be979ca3U,
  0xbe30ec87be1196f0U, 0xbedfabc5be86d6d0U, 0xbe9a76c5be093c23U, 0xbeb2249ebe9a8fe5U,
  0xbdd78707bd5edff8U, 0xbd81ca26bd8a8db2U, 0x3d92d2d0bd0e6db4U, 0xbe916d8a3da449cfU,
  0xbd74d3b7be4c4362U, 0xbeb699f5be7b9204U, 0xbe8e876fbed4f3d1U, 0xbe8360bebe9f21a0U,
  0xbe9ae829beae2710U, 0xbdd6f366be8ab0d3U, 0xbd12b8253c9f7c21U, 0xbcd2b045bdc4bba4U,
  0xbe7b60f8be1ac7d4U, 0xbe703b4bbe59b269U, 0xbd8edcf6be715b02U, 0x3cb06c18bdff1ef9U,
  0x3deeadae3d9c8c10U, 0xbd5df7533e26f018U, 0x3dff18a43d9f4d3aU, 0xbe083174bd79c9f8U,
  0x3d5de8b03b8b39baU, 0x3c98fb8e3da93dfaU, 0x3e036ada3daf56f8U, 0xbd9fd0aa3da69027U,
  0xbdad12df3d5ea368U, 0xbc0a1f2fbcb03f55U, 0xbe3b002ebcce9197U, 0xbe64aeacbdf79704U,
  0xbe1f7d44be4be962U, 0xbe4792fabe449133U, 0x3d01f8ea3d390e88U, 0x3e7567d43e1149ffU,
  0x3e23ac223ec13d7bU, 0x3d18c53c3d16e568U, 0xbd58f9823d1b22e2U, 0x3e5866463d248c24U,
  0x3d91cd283e6961feU, 0x3e34ec683e15bd00U, 0xbd91c4e83e13a4c4U, 0x3d9f2f95bc5e3103U,
  0xbc8539aebd382fc1U, 0xbe43c934bd2fad17U, 0xbe3a79a1be27eb7eU, 0xbe11ea89bd6f4c24U,
  0x3e2265c1bd84a670U, 0x3e4b52cfbe943f38U, 0x3e24ea563e0d3666U, 0x3de397a13e45402aU,
  0x3e0b49493d9fc479U, 0x3db421b33e3f8f46U, 0x3e2a31c83dee199eU, 0x3d171a9f3dab38b0U,
  0x3d1dc8bb3dc0a9d0U, 0xbdd6431e3c698ae6U, 0xbdc7da16bd8af731U, 0xbe29fdbabd937327U,
  0xbd95ccafbe67d822U, 0x3e2748f73d86c164U, 0xbe0b4ce4bbcbe021U, 0x3dde2054bdef641cU,
  0x3e58b9163eafc02dU, 0xbd40f73a3d45fbafU, 0x3d781fdabdbd5c56U, 0x3cf8ee763b02ccceU,
  0x3ddd594f3dbcf635U, 0x3e13d3373d7287ebU, 0x3d5290783d0bf8e8U, 0x3d9d4d5abd64bd3aU,
  0x3c61ffdcbd2ac994U, 0xbe0a4bafbe20a427U, 0xbe09ec18be9372b8U, 0x3d5a604f3d6c5a2eU,
  0xbe2f47a1bd4f52efU, 0x3dd0c2793d4511caU, 0x3df7d3c23e68cd88U, 0xbd5a6cb63dd88d98U,
  0x3d144e5f3990b0c3U, 0xbe10d6cc3d156e46U, 0x3d1486d9bcbfa3a9U, 0x3e04e6873d8c2eefU,
  0x3d8b87d63db26515U, 0x3e1e6ead3e336e9cU, 0x3cd817b6bd4e6debU, 0xbecba6b0bda7e825U,
  0xbda9e72ebeb87cd2U, 0x3c850860bdebb729U, 0xbe66acbdbdcb75dbU, 0x3dc0d56bbde64e8fU,
  0x3d8fc576bd5a7e9bU, 0xbd5e235ebd28891cU, 0xbdef78d8bcee6bcbU, 0xbe800d1dba0aaad0U,
  0xbd94cfbabe465a58U, 0x3e3c02ffbc9cd396U, 0x3ea167d63e8d5a0cU, 0x3e7be2623e62be20U,
  0x3d1f03db3e09903fU, 0xbeab2b86bcee0921U, 0xbea41ee2bf07b22bU, 0xbdb38da9bda05371U,
  0xbdcb1d84bdd03122U, 0x3e0b0fa0be246e25U, 0xbd2ac622be46b2c1U, 0xbddc7ae23d986035U,
  0xbe48884ebe68233aU, 0xbe3dbfa9be1e004bU, 0xbea8d2f2be8dc6edU, 0x3df5295cbe490630U,
  0x3eac56eb3e8e21c7U, 0x3e9f42c03eb96022U, 0x3ddc5b893e5dcdb2U, 0xbebe1a0bbdd48bb2U,
  0xbecedd78bf51b7f3U, 0x3db67ce6bdad605cU, 0xbe5295eebe2a4b57U, 0xbdb20964be8fef69U,
  0xbbf2b860bdf019e0U, 0xbe54135dbe506215U, 0xbdb4e21dbe0a1c82U, 0xbd9a2696be1ba87eU,
  0xbeaa9f7dbe4b0725U, 0x3eb24f76bd143ac6U, 0x3e63b4393e560002U, 0x3ec7c1ad3e8a93b8U,
  0x3e113ca63ec2d41dU, 0xbf1ba2fb3cf22e77U, 0xbe8154acbf1c47beU, 0x3e4e44dbbd2b2e64U,
  0xbe84aecbbd11978bU, 0xbe5bb4c4be89120eU, 0xbdb3ac47be7388d7U, 0xbe13ec8abe740100U,
  0x3d5a74dfbde26258U, 0xbd63d255bdd5f58fU, 0xbe25f0dabe194715U, 0x3e4ad4153e109c44U,
  0x3e38441d3e5305e4U, 0x3e77ef693e0fbf3aU, 0x3e8ea7173e9ad702U, 0xbedfdbf6bd7f80b8U,
  0x3d505428be759459U, 0x3d6421d33daae13cU, 0xbdd8fc343cea1c98U, 0xbe2f970dbe8b328bU,
  0xbe788031be281c5aU, 0xbda3819fbe05c5e5U, 0xbbde6b93ba9243eaU, 0xbd75feedbe1d4f6dU,
  0x3d4e78b0bd94bc0bU, 0x3e790d403e6fe440U, 0x3e941d983eac9fcaU, 0x3e8358a03e8d435aU,
  0x3ceb9b283e84b8e5U, 0xbec4af48be75e0e0U, 0x3e904d90bdfd848dU, 0x3e2db9323efbd13aU,
  0xbb1c7009bd0a9f19U, 0xbc912f82bea96701U, 0xbcd80e0b3e3e13cfU, 0x3d174397bd19f0faU,
  0xbdc15692bd9c100aU, 0xbcbc05b6be487db8U, 0x3deceee1bc3de3aaU, 0x3e848c963e66c680U,
  0x3eb1fee63e7e07ccU, 0x3e5a82573e38941aU, 0xbe0a822e3cd01cb2U, 0xbee40279bea13119U,
  0x3e8b2612be938808U, 0x3e28b5863f09f89eU, 0xbdb4aababe137c28U, 0x3dd0e7eabda579b3U,
  0x3e11526d3ec3999aU, 0xbd4f1cf63d3f877eU, 0xbd92f507bb1eb350U, 0xbd472e20be08ac62U,
  0x3e63186c3cfeb6e1U, 0x3e755ed53e3c5486U, 0x3e7438ec3eba9ba9U, 0x3c1be2183d7b8424U,
  0xbe44ba61bdc238c6U, 0xbe348f7dbe688972U, 0x3d47a26abe8310d8U, 0x3e8f52e43ee37b52U,
  0xbe09c2003dee3392U, 0x3e3a01663e23d692U, 0x3dd44f943e8069f4U, 0x3da7f5ea3d508a9eU,
  0x3d804bde3df1678dU, 0x3d955a8d3d8ff131U, 0x3e5716153e00e438U, 0x3e29d81a3e4272a0U,
  0x3e1cfe993ea56864U, 0xbd9e991f3cae9b0aU, 0xbdaba680be1f66aaU, 0xbe46685bbcdd9443U,
  0x3e1d0d9cbe2b8f30U, 0x3e4764373f023647U, 0xbd9b057bbd254c1fU, 0x3dad7afe3ea57f77U,
  0x3d3a7e823e4e4330U, 0x3dca36ba3d26d4e6U, 0x3d11bada3deeba32U, 0xbc84b59dbce3d5c4U,
  0x3e3fd6553e764a00U, 0x3dd9e9c83e1081f6U, 0xbde844e03ddcd186U, 0xbe541181be4c6712U,
  0xbe26b69ebe562857U, 0xbe34caa7be13671eU, 0x3d82aeb5bd37dd7fU, 0x3a7cad6d3ec61a1fU,
  0x3d94de28bdf85143U, 0x3e2323dc3e41d9b9U, 0xbd3e766e3c1791bfU, 0xbc00f996bda0308aU,
  0xbd553f183d7d7ae1U, 0xbd920917bd0e93fdU, 0x3db3e29d3c8e17a9U, 0x3da74f833e23bc95U,
  0xbd93ade53d2ef760U, 0xbe15e994bdf7a608U, 0xbd28fa5cbe5e3390U, 0xbe1bf54abdcd411cU,
  0x3c5ada1ebe34a9a9U, 0x3e51c917bb9157b6U, 0xbdff2e0d3daca353U, 0x3e3424d4bdd82ed5U,
  0x3dc8ee42bd2fa0d8U, 0x3c6792543d21c18eU, 0xbd30df41bdb31982U, 0xbde2fba8bdb85a52U,
  0x3c0d3dafbe59cbc9U, 0xbc4270643da9a785U, 0xbd674e0f3dd6b671U, 0xbd1b29a4bcbcac33U,
  0xbd20ad02bda61423U, 0xbdbda5e5bdebe3d8U, 0x3d82ad91be95d2efU, 0x3e7248433e94cbf3U,
  0xbdfbfac63d36c46cU, 0x3e23cd5ebdc3bf20U, 0xbdd684743e21b629U, 0x3dbf8e05bd0f5f42U,
  0xbd80c0bbbda3ca73U, 0xbd89e9a73cc031b0U, 0xbdb9f764be209779U, 0x3da7ac5cbda2fa6bU,
  0x3db305093cd07ed3U, 0x3da2775f3de80fd7U, 0x3df235ac3ddc0447U, 0x3c2d5c413d0616e0U,
  0x3cc58e033d62149dU, 0x3d9912ac3e94dabcU, 0x3e8acbfd3d583965U, 0x3e4a996c3ec2a7e1U,
  0xbc8a65933c12f9dcU, 0xbdd6dbbd3cc26e30U, 0xbd505a81bd59bc08U, 0xbe261d24bd2c9f7eU,
  0xbe25d154be6d975bU, 0x3ccc7e78be0e7e91U, 0x3ccaef393d7a7f42U, 0x3df87ee23aa2e28eU,
  0xbc903587bd2f749fU, 0xbba1307e3d3629efU, 0x3cf1d0be3d4abc5cU, 0xbb95325cbe237587U,
  0x3e14aac3bd36758bU, 0x3e80fc9c3ed7eee8U, 0x3ddf43d2bdb3ad42U, 0x3ce284a63d21040cU,
  0xbce24c5b3d4b5b73U, 0xbc8af3c33d3ba0d4U, 0xbdd1d47bbd0c4201U, 0xbdabbebd3d4cb102U,
  0x3d96fc91bda0e565U, 0x3d73bfc23bc16a25U, 0x3dea315e3d71656dU, 0xbd4b39163dc16d46U,
  0xbd0fae6a3da6097aU, 0x3d6b68e7bd8ddc3eU, 0x3d7148983d998ad0U, 0x3cb311493e80b250U,
  0xbd78332bbd951c37U, 0x3dddca07bd64f237U, 0x3cea4819bc50650bU, 0x3d6e11153cbf340aU,
  0x3c483bf63c4c4c6cU, 0xbd9c3d1c3ce054c4U, 0xbca64e26bcc0b3f4U, 0x3e357bbf3e59b34dU,
  0x3e66c74b3dcdd61dU, 0x3e5889403e413eafU, 0xbc6cb6973d984877U, 0x3da3f0eebca01c34U,
  0x39ae73003c4e4120U, 0xbdc17d493cf007eaU, 0x3d275fdebc275be1U, 0x3cb271c1bd8ee253U,
  0xbdf85dd93c6d68b9U, 0x3ceffb3a3c683a25U, 0xbdb6e2c9bd3ff923U, 0xbd043107bd0e8379U,
  0xbcf55e67bd7c4c2eU, 0x3dbca9053d140af5U, 0x3ea72e933d8c4f29U, 0x3e9942de3e9405a4U,
  0x3ec877f43dc96f5fU, 0xbccd2bd63e3a6e74U, 0x3d6c9488bd570a02U, 0xbe0443773e475dafU,
  0x3e2065b1be0ccedeU, 0xbd20278a3e1f1f22U, 0xbda27174bcb4b597U, 0xbe08ca02bd8ddf21U,
  0xbe4c6d6bbd64ba90U, 0xbe51dec43bf8c5f5U, 0xbe133fb1be7838ccU, 0xbde278adbe204064U,
  0xbdca79ba3ddd0956U, 0xbe0ac803be0cbd5cU, 0x3e0c0b54be8e9356U, 0x3daa03e43dbb3f65U,
  0xbd6f4e71bb630160U, 0x3e353bc13d7700c0U, 0x3e821a003e9039cfU, 0x3e10da4b3e60a7cfU,
  0x3c263eb43e06f204U, 0xbdb58ddbbcc21e81U, 0xbe48853abb9c483bU, 0xbdf0f089bd69e476U,
  0xbc8cebbabdd5c52cU, 0xbe45a15cbd80a511U, 0xbd78f7dc3ba2e43fU, 0xbc19d949be142133U,
  0xbdf70bf0be0e1368U, 0x3d60fd983d3c6fdcU, 0x3da490e03d47ffd0U, 0xbda07cb3bb98ceb0U,
  0xbdb96451be3821e0U, 0xbd1e602bbd131143U, 0x3d1c29e3bd2f95faU, 0xbe0c9b4cbe8e42caU,
  0xbeb851393d4209faU, 0x3d6232e93d8535dbU, 0xbe20e8e3bda485c8U, 0xbd8591e53ccd3651U,
  0x3d8e9e613e09f5edU, 0xbe4695c33b9dbb9aU, 0xbd7e45323c6c9670U, 0xbd733524bc109658U,
  0xbd96d0e03cff51b4U, 0x3db018fa3a882f80U, 0x3daa6f08bd84f424U, 0xbd986086bcb193acU,
  0x3d51c6f43d9df43aU, 0xbb8cdf90bd493648U, 0xbd993e6fbdac0278U, 0x3b0712683d39d507U,
  0x3ca57f44bd85de27U, 0x3d5ea134bc135858U, 0xbd19e936bd03806cU, 0x3d850c963d3d0438U,
  0x3d5b7ba4bd70395aU, 0xbca18b70bda63a23U, 0x3d4e3858bd64bd9bU, 0xbd17a7603d06b01cU,
  0xbe06695ebd6dc319U, 0xbe00009abe1a1033U, 0xbe3be5d9be2603adU, 0x3d521a6bbd7dbcf9U,
  0x3dedea933e1586ffU, 0xbd1a5388bcfb283fU, 0x3e6cbe4b3e6b74d4U, 0xbe08ed53be540aeaU,
  0xbd7b4ed1be119ee0U, 0xbe23e8a2be7dcc3eU, 0x3d631c4c3d9cf56cU, 0xbb637200bda7134eU,
  0xbda6e919bd9fecb1U, 0x3e392222bdaaddc4U, 0xbd54eb55bc471ec8U, 0xbe0996ecbe6ad41cU,
  0xbd9874443d1bd06eU, 0xbc8311abbe2c5e37U, 0xbe568dadbe31a9f1U, 0xbe250eacbe2eb85fU,
  0x3e18bd1dbe1b1cbeU, 0x3e33f86e3e292814U, 0xbcb98a4fbc09d426U, 0xbe139753bcd01c4bU,
  0xbd23529abe74dfd5U, 0xbd2e927bbc94ad4cU, 0x3d83c7cebd76b0bcU, 0x3da1f641bdd22dc0U,
  0xbe8754913e274de7U, 0xbe068a2abe4a7ff4U, 0xbd7c1516bdb37088U, 0xbe09b307bd4d5d38U,
  0xbe36860dbe390186U, 0xbdf3b31dbe564eacU, 0x3d29f3c8be013205U, 0xbc4d2aa83db3c294U,
  0x3ecd03f53db443ccU, 0x3e6157883ef0ece0U, 0x3e81b61b3d555152U, 0xbd64737f3dd89cb2U,
  0xbd8924aa3d8ff3ccU, 0xbe8a6e97be3d96dfU, 0xbecaaee1be271c2aU, 0xbd640160beb924f1U,
  0xbdf08c49be98b1e5U, 0xbcc8a064bdb835bfU, 0x3bc40731bc8f7bf2U, 0x3d34b197bc9880cdU,
  0x3e5593a73e385340U, 0x3e1b90c23e0cd6ffU, 0x3e62a7c53d8ff784U, 0x3eaf0fa63e89f1c8U,
  0x3edd0bba3ef36312U, 0x3e1aa5be3e87faacU, 0xbd223fa9bd04b742U, 0xbe384ac4be38f822U,
  0xbefccc4bbecfae25U, 0xbe2211fdbe9f2434U, 0xbda4d3b3bd1d7c09U, 0x3d80b2563d08d5b7U,
  0xbd46ca23bd2ce142U, 0x3dae8da23d190084U, 0x3e62089e3dcbe3cbU, 0x3e2c0d433e18b5a0U,
  0x3da0838f3e579705U, 0x3e212d443e70d748U, 0x3f04de1a3e154285U, 0x3e47b4de3e995212U,
  0xbe256f8dbccd3822U, 0xbecaf1cc3e3ed639U, 0xbc24318dbe8ca338U, 0xbc6f9d99be1ba915U,
  0xbcddbacc3d5748b8U, 0x3d500ce73d66a0d2U, 0xbe008b063cad34daU, 0xbe806bc1be423714U,
  0xbdc9fc0abe9b519dU, 0x3cfe6cfebe631166U, 0xbd3a9de33b7a3dd2U, 0x3edd336f3e9f342dU,
  0x3f1f249c3ef0c053U, 0x3d88ae0c3ead7fefU, 0xbea238bb3c34fb38U, 0xbeab02cebc6518daU,
  0x39f55876be76da43U, 0x3e0c5e19bcfbb304U, 0x3d4aec7a3e5ae1ccU, 0x3e0af00c3e440c6eU,
  0xbdf4488cbe00eb6aU, 0xbe939d70be74d504U, 0xbdce3a4ebe4f683fU, 0x3d8fd3c2bbb7dbceU,
  0x3dfb28ebbd5de20dU, 0x3ef502e43e96aa7aU, 0x3f4451213f2ba798U, 0x3de7d0bc3eb8a2dbU,
  0xbe83547c3e37792dU, 0xbc860bff3ddb45c7U, 0xbdb730aabea967b9U, 0x3d28c058bd8eb6e4U,
  0x3ea66ae63d7c95b3U, 0x3e24dd813e79ca8fU, 0xbc0a013c3e1268b4U, 0xbe84680abde014bdU,
  0xbbbead3abdfee275U, 0x3da5f2c23de918bbU, 0x3e235fcc3e492e3cU, 0x3f2dd1d03e620864U,
  0x3f525d5d3f7f6e2bU, 0x3e16e1a23f008beaU, 0xbe100401be3face0U, 0x3d8b675c3dd207e8U,
  0xbe0a938abeb0e514U, 0xbda04220be3065c4U, 0x3e364ad93db4a216U, 0x3e6328793e8bef39U,
  0x3d0415c23e59916bU, 0xbe88b66ebe5b8194U, 0x3d6e6863be0eda82U, 0x3de67f133dcb3078U,
  0x3e5cd7d93e3ce986U, 0x3f0524653e91c19aU, 0x3f5de0033f6d2a3cU, 0xbd2090b93efb849bU,
  0xbe08d9bebd713f99U, 0xbc25651c3d2ae5f7U, 0xbd54c6d3bd87247fU, 0x3daf2e21bd6e7ffbU,
  0x3e832f333e0d8defU, 0x3e890d403e94c25aU, 0x3d49255e3e7e7b22U, 0xbe83014bbde4f6eeU,
  0x3bedc52fbd834edcU, 0x3bb84c1e3d1ea483U, 0x3e28ed3e3d792a5eU, 0x3ec299483d9a9d24U,
  0x3edf24323f671001U, 0x3d4558c23eaa8281U, 0xbd5a9e47bce2ee91U, 0xbe37b76abe573bdfU,
  0xbc98a455be4e0d25U, 0x3e05d1243e0ff88bU, 0x3e2860f83e0c4f25U, 0x3db78bd13dde7e59U,
  0x3d95d8ac3e2c1a88U, 0xbe341777bdb7121fU, 0xbe3e19c2be411427U, 0xbd6cc3f7be2cbffcU,
  0xbe3ff23cbe36683cU, 0x3e4031f2be154001U, 0x3f14c06c3f2ce6f1U, 0xbda6f95b3ed80027U,
  0x3d04777fbdb476d4U, 0xbc010a2cbe89bb6eU, 0xbd7faab1be87fa0eU, 0x3cc524ebbce7cce7U,
  0x3d1ee482bc2f1239U, 0x3d7d43fc3c266bd8U, 0x3e439c533e512fceU, 0xbe752b94be3f5fe7U,
  0xbdde7f8abe6d1083U, 0xbddfe1bcbda0deacU, 0xbe009e08bdaf0179U, 0xbd8420a3be19f4ecU,
  0x3e1aa9143ecc7091U, 0xbe98d28c3e3a4785U, 0x3d9e10f8bd7d7f54U, 0xbe24a5fabdc088a1U,
  0xbe2d5bbcbe7afbe4U, 0xb955a123bd963eaaU, 0x3b3a6319be0d01e0U, 0x3e9aaf48bc07debdU,
  0xbc92add73e8c13b6U, 0xbe45bb40be499a62U, 0xbe3a9cedbe58f2cfU, 0xbc7914e5bd8290cfU,
  0xbda413193ca99ecdU, 0x3de6d8edbdbad5b0U, 0x3e0725813e7de9b6U, 0x3c411ff83e52d695U,
  0xbe083b943d6c1beeU, 0xbe746497bda7490bU, 0xbc0f12ccbe77e862U, 0xbd409960bcf94ddfU,
  0xbc1fa7edbd80d65cU, 0x3e78369b3d9a516cU, 0xbcfc9d603e2da6b7U, 0xbe204501be1f3202U,
  0xbd31ebe8be8d0370U, 0xbd177d85bc9c4a5aU, 0xbe255ed2bd53ea2bU, 0x3e25e200bda2dcfeU,
  0x3e66c1203e968a03U, 0xbbc002bb3db7f3afU, 0xbdf1322c3cd8f852U, 0x3dece00f3c1400adU,
  0xbdee41dcbe2434efU, 0xbc19615bbdce0be7U, 0x3e4da2b93cd91db8U, 0x3e0648eb3e2f2615U,
  0x3da11c343e2a3dcbU, 0xbdd640a5bd0c3e2bU, 0xbdb196f6be0b891eU, 0xbdeb61743cb09ee4U,
  0xbd07441bbe658befU, 0x3e11f7163d234d12U, 0x3ee704db3e82acb1U, 0xbe32a73bbcde40d2U,
  0xbe2ed492be07ddabU, 0x3e1b0b98bdb5db60U, 0xbe00bfa8be5e25dfU, 0xbe26c850bde3a5a1U,
  0x3db1beaa3cf90304U, 0x3e2625703e2f3029U, 0x3d9104ad3e5f88cbU, 0x3ca2b6423d630cf0U,
  0x3de66028bc75437bU, 0x3bb5eddcbd884c2dU, 0xbd46c5d7bd2bed63U, 0x3e50968fbc965d5bU,
  0x3ec57fc43d85f60aU, 0xbe042504bd69bc65U, 0xbe788ae13bcaf4b0U, 0xbcaca641bc4597cfU,
  0x3dd9325dbd27e191U, 0xbce968443e16b73cU, 0x3db8b2363cb8b1ceU, 0x3e4429353df90adeU,
  0xbcd255dc3db0b3b1U, 0x3d4874323d712326U, 0xbcd488e03d6d2295U, 0xbe06f9e0bd45b5b4U,
  0xbc02a284bc5e9c72U, 0x3e5289b6bd3f90eeU, 0x3db7b11d3e29b5b5U, 0x3e93a336bc904778U,
  0xbe285684bdfc53d2U, 0xbd3c098fbdad2d0eU, 0x3e4a87703e61f0c9U, 0x3e63df173e4f1d7bU,
  0x3e1004a93df2806dU, 0x3e7a6e3e3ddd4b99U, 0x3e1872cf3e93f915U, 0x3c1a24773dea05b4U,
  0xbdb1062c3c797397U, 0xbd563fcdbdf22d4eU, 0xbd8ba26fbd1cc7f2U, 0x3e7ea7b9bd843696U,
  0xbe55870e3eb0e42dU, 0xbe925351be5df26cU, 0xbb4575e7bdd8b0d0U, 0xbc03d4c83c7d32a0U,
  0x3e8e7c1e3e14f3abU, 0x3e3750333e519ae1U, 0x3e4e0c313e37dbe6U, 0x3e28f6c43e5f27e5U,
  0x3e564aba3e6c796dU, 0x3d8258ca3de4157eU, 0xbd0b16c4be24e15aU, 0xbde5ab5dbe04a375U,
  0xbd0618b2bd668fb8U, 0x3e65ed0d3d4b7d91U, 0xbd9590a03d9d713fU, 0xbe6593e1bd84c4c4U,
  0x3de489813db0e73eU, 0xbdc7b3423e5a5e40U, 0x3e6bd8243e203ea7U, 0x3e011b753e4f2d28U,
  0x3e365dc23e879268U, 0x3e98aeb53e807e92U, 0x3e12671d3e98db7bU, 0x3d6ed6b63be6fe20U,
  0xbde50638be0b1789U, 0xbe0cf92fbd7c9a59U, 0x3e00f1eb3d883883U, 0x3daa69843e382b18U,
  0xbe908742bdab3747U, 0xbdd33946be3c133fU, 0xbd84dbaebde950c3U, 0x3cc8921f3d850a41U,
  0xbda01397bca6c155U, 0x3e501b09bcf5c278U, 0x3e38b18f3e0a1e34U, 0x3e7c97be3e11e831U,
  0x3e19cad73e173112U, 0x3d4b24323d65e26bU, 0xbd7f3c02bcbbc0b6U, 0xbda62436bdfc3355U,
  0xbc79db523d5470f6U, 0x3e6d83b43e5b4f55U, 0xbda95fc8be060f7eU, 0x3d9ceeb63e617ee9U,
  0xbc1035d4bdd016b3U, 0x3da54f363d473586U, 0xbe17c58c3c207f44U, 0x3b5484f4bc58cd0cU,
  0x3d9876163d8568cdU, 0x3e66ebb83d18ccfaU, 0x3e7b6ba13e8442b8U, 0x3dfbb63b3e2fe239U,
  0x3c2cc35a3db8d463U, 0xbc4622d4bc1886dbU, 0x3daf421e3db79470U, 0x3e1c72663e05da35U,
  0x3dfae97ebd8551f6U, 0x3da215423e7c23e5U, 0x3cb694a4bd44e73fU, 0x3db25a133deb80d3U,
  0xbe821a0b3cf32adcU, 0xbd84a0e2be30ce4bU, 0x3e4707e13e115a16U, 0x3e3864293e2a8776U,
  0x3e2a1c3d3e49b29dU, 0x3e632de13e8dc636U, 0x3dbcb6383e0b07deU, 0x3d19b167bddcd61bU,
  0xbd2d673cbc9d9a13U, 0x3e1064b53e022039U, 0x3d81f75dbde4e9dcU, 0xbd6ce0b3bda4fb13U,
  0x3da61bae3d991cb0U, 0xbe41c6e33cc439a0U, 0xbef6612bbebcedb2U, 0xbea9d0e2be94b1a0U,
  0xbc64fa54bd8160d5U, 0x3e537e0c3dadf75dU, 0x3e9abfe03e659f65U, 0x3e7278e63eb019dcU,
  0x3b1a01d03e8d7c1fU, 0x3df54d6d3d05674cU, 0xbe8ce963be00f1e4U, 0x3d3ebdc039b5e8c9U,
  0x3e5c6d59ba4af188U, 0xbcfc32323ca5f044U, 0xbc1f29b83d0c0c90U, 0xbd6e8e46be399117U,
  0xbef8054bbe1c237fU, 0xbebadd94bed174c6U, 0xbe7b8d95bf0c190bU, 0xbcd51779be0ff062U,
  0xbe146d76be6ebcf3U, 0x3e15ffc0bdf5791dU, 0x3e19d52c3e1506b0U, 0xbd5d7a883ccb1fb5U,
  0xbe239ca2be8c0ac8U, 0xbccca2ebbc9a12bfU, 0xbc6342dd3c770ff0U, 0x3cc285343d879e03U,
  0x3d94d518bc8af390U, 0xbdd88ef03b412900U, 0xbdf50f23be018a8aU, 0xbf0be556beb3553cU,
  0xbf3c8561bf16979aU, 0xbe95230ebf0cb4b2U, 0xbec3e5d3be34c529U, 0xbee0c1e0bf22770aU,
  0xbe6bbfe6bebc1dd1U, 0xbe562302beaf7863U, 0xbe2def22be64d6eaU, 0xbdc872f8be1eeb85U,
  0x3d81f7c0be3a80c2U, 0xbd8a8ef3bc706c98U, 0xbd8680f43da0f974U, 0x3d0c61f4bc6e6408U,
  0x3db744183c4c1f23U, 0xbe0722c9be526009U, 0xbe462184be08693aU, 0xbdabd6a9be4e6395U,
  0xbe60e47ebe4e93daU, 0xbea46e5dbec44061U, 0xbe665e88be46e087U, 0xbd9a2545be780c5aU,
  0xbe77f271be967f95U, 0xbe1e8104be905839U, 0xbd9b516c3d1d78c4U, 0x3d5ff65cbd53ccd5U,
  0x3d42fc04baeb7200U, 0xbd4402873d874f5eU, 0xbda420fa3d8459a2U, 0xbce2e568bd16dbe2U,
  0xbd5b90143d73edb0U, 0xbd84ca23bd8f9887U, 0x3da9d3f63d4b77eeU, 0x3d2e3bfe3df9f43cU,
  0x3d3536b4bda520eeU, 0xbce9cef4bd345c99U, 0x3d37645c3d8f2680U, 0xbd83bc9cbcdcbf1aU,
  0xbd2ef00e3c4de1b0U, 0xbd3641ca3d5f7114U, 0x3da62ac23d68d438U, 0xbda4f10a3d3b7380U,
  0xbbae19c33cb4b2bbU, 0xbdd888d1be526295U, 0xbd4c185c3c9a16f4U, 0xbd1e556fbdaeb7fdU,
  0xbd31a3463d036837U, 0xbe470e423d536e31U, 0xbc298fd3be23ab48U, 0xbd73f3333df8abf0U,
  0xbe0b1224bd98f184U, 0xbe07a8ccbdc2d599U, 0x3d2d8688bd80ba98U, 0xbcd5c1b83d4b751cU,
  0xbcf869fabd569895U, 0xbd02026d3d8b277eU, 0x3d737093bdae072bU, 0x3c259d063df5b23fU,
  0x3ea368bc3e07209cU, 0x3eacd5c13e87a6b0U, 0x3db465693e78de6cU, 0x3db4e9e63e8c319dU,
  0x3d2eb164bd4479e1U, 0xbd604427bdac55b5U, 0x3e7d06fc3e1bdb21U, 0x3e2131823de06c8fU,
  0x3d34fcf73d981c29U, 0xbbf471a03d028676U, 0x3ca5e43c3d2177c4U, 0xbdaa99ebbe143727U,
  0x3e0d63ecbdef04e8U, 0x3e99d2a83e8b604bU, 0x3e8bb9983e4da456U, 0x3d1baf2b3dcc74f9U,
  0x3cb0f8d63b29cef4U, 0xbdce1c3cbc878d13U, 0xbc1b706dbdae1fa6U, 0xbd137a41be045956U,
  0xbc2f71b73d97fe65U, 0xbd3dc4eabda4d2a0U, 0xbddf22b83c1cd8fbU, 0x3d631b4cbbfd48e2U,
  0xbdd780febdabc251U, 0xbe7b9645be498f1fU, 0x3e8be6113da76473U, 0x3dcef8893eab8dcaU,
  0xbd02af923d21f772U, 0x3d04ae343b6d4c63U, 0x3c9bff173d0ea20fU, 0xbdcc80babe57285bU,
  0xbddff175bdc1e4e5U, 0x3cd23587bdf9b6efU, 0xbcc5c4deb97bf1f9U, 0x3d43499d3debb90cU,
  0xbe48d748be4641ddU, 0x3da5b139be897b24U, 0xbd2bc690bd929016U, 0x3cb9bc9bbd16c89fU,
  0x3e515b2f3ea067d0U, 0x3d3a8bca3e20518dU, 0x3d568adc3cb7ece1U, 0xbdf5e549bd612c90U,
  0xbe5affe4bd6e261aU, 0xbd7323e3bdefb952U, 0xbd680a01bd643e76U, 0xbde4f06dbb86847fU,
  0xbd948bb4be352ad8U, 0x3e3f7f34bd1020f6U, 0xbdef0d723e0e2e3aU, 0x3e06cc33bdc5de8fU,
  0x3e35b32a390bdc00U, 0xbbaeadeabcd3c69eU, 0x3e2842bb3e804b23U, 0xbc147e0c3d9286f3U,
  0xbbf6d1dcbd7b79e6U, 0xbe5ce851be0c18daU, 0xbe673e90be408d27U, 0xbdd49903be582cf0U,
  0xbdcad385bde309eaU, 0xbe2cc0a9bdaa1a5eU, 0xbdae9a9fbe227e1bU, 0xbc92bea1bdd7c01eU,
  0xbc7c9a5c3d667eebU, 0x3d46a81b3dd323d0U, 0x3e34e7cabd811d28U, 0xbda347503dbd2454U,
  0x3e559bf83dbff95aU, 0x3ccfcb16bd01dc7aU, 0xbd7a3337bd9b2ac8U, 0xbd6d28b4be380247U,
  0xbe35e159be5b48f3U, 0xbe32ff72be0a714cU, 0xbd94874bbe112109U, 0xbdae5b8cbdeef580U,
  0xbdf6bbb7bdf3faa5U, 0xbce5917ebd73122bU, 0x3d84b9d53d9be604U, 0x3df19c003e56fcdcU,
  0xbd491208be11ac07U, 0x3de159443e354b88U, 0x3cf509be3e475887U, 0xbddbc3f9be0080a1U,
  0xbd52005dbddef40cU, 0xbe42ca63be277c6aU, 0xbe26bc01be49d87dU, 0xbdf169ccbdb910d8U,
  0xbdc8ac38be271b98U, 0xbd4ad8f8be531e14U, 0xbde74877bdbe4c7eU, 0xbe23b58ebe85ad7fU,
  0x3df158b8be45dbacU, 0xbe561b68bd71741eU, 0x3d7e66683e20dbf1U, 0xbcf499ea3de92131U,
  0x3ce8afac3d9d32dcU, 0xbdfb0a19be185a39U, 0xbe09dabfbe064dd4U, 0xbe0ae961be1f0d69U,
  0xbd9ea188bdc7765eU, 0xbd0e4be3bcd17e9bU, 0xbd2856b73c9ea730U, 0xbdd5cc06be13c222U,
  0xbd99b5013cc22fb8U, 0xbddb5201be3d7597U, 0xbe67770cbeb260c9U, 0xbdd14066beb2bbabU,
  0xba7a4ae23c651c0fU, 0xbc5c58ac3d6142d2U, 0x3be37fa2be2dc7e6U, 0xbdfb68c8be88a5daU,
  0xbe419528bdeb0b17U, 0xbe040353be5da669U, 0x3d53ae6dbd913b38U, 0x3db8e777be01a339U,
  0x3ad962473d6a0a17U, 0xbd086f5dbde2bb6cU, 0x3d7a2ae7bdd5cfc1U, 0xbe902683bdd399f2U,
  0xbe241c44be8ccfaaU, 0xbe0abcf4bed3ad80U, 0x3d21fe3a3ce77a01U, 0xbb86c5153d1019e6U,
  0xbe1b92efbe109470U, 0xbe2bff69bdfb97a2U, 0xbe372bb7be35fec3U, 0xbcdbd6d6bdf0fa8bU,
  0x3cc745933e02e998U, 0x3d68fd5a3c5708a6U, 0xbd1cd1e23ddd1c23U, 0xbc15ac70bc82aac6U,
  0xbd98a84ebdf5ab23U, 0xbe949f3dbe4dda24U, 0xbe69fc73bf056291U, 0xbe1c987cbef217c3U,
  0x3e2dca943d859798U, 0xbe7409dabcab57fcU, 0xbe708095beb07d42U, 0xbdd51c46be05a3c0U,
  0xbcff9678bd59b8fdU, 0x3e8fb4e03dadefe4U, 0x3eaeab103ef33c46U, 0xbcea07783c6dc824U,
  0xbcc3c5bd3d6213f0U, 0x3cc5a928bd18e3f1U, 0xbce52646bdf6c6d0U, 0xbe7ffe0a3d5cbcc6U,
  0xbc1c3bc7bdd61689U, 0xbe017e39be827c72U, 0x3da7953dbd8d29deU, 0xbe8770523df72206U,
  0xbd97f642beb5e5bbU, 0xbc1951653d9a1328U, 0x3e080e2e3d877b9fU, 0x3ebec5703e947fbeU,
  0x3df1c9b33e9c2b45U, 0x3d3569afbdcc02feU, 0x3d849aee3d72f593U, 0xbca6f7883c4a0976U,
  0x3de42ef0bc8d118bU, 0x3e0b7b2b3dc1e22eU, 0x3d8699943e9214eeU, 0x3d30ab093d02f151U,
  0x3e2c03913c9c0496U, 0x3e656e0a3b01b5b2U, 0x3e3c8cd73e292634U, 0x3e59a2f53e666179U,
  0x3e39bbf43e71b151U, 0x3ebc3ae03e70e9fbU, 0xbc1b5d703e84bb4fU, 0x3ba2ec1b3bed03a6U,
  0x3e1889693e3aa1a2U, 0x3dec5c0b3e369744U, 0x3dc723d63e0dda61U, 0x3e86d5dd3eb9980cU,
  0x3e9810d93e93f47fU, 0x3d0c813cbdb89a34U, 0x3d4ce11a3e65cbb4U, 0x3e9f81133e6b9f5eU,
  0x3e5751213e232709U, 0x3e273d0f3e677351U, 0x3e20dc883e60292eU, 0x3e48dcc63e30da6cU,
  0x3da3cd803e705546U, 0x3e3f2e053dbd2a63U, 0x3eabd64a3e44353fU, 0x3eb228dd3de0c109U,
  0x3e0ce92e3dee2fc9U, 0x3eba6e5b3e884b27U, 0x3e4ca7623dfb8ebfU, 0x3e3137343e31d371U,
  0xbd89c31a3e41de85U, 0x3eb961a43e9249eeU, 0x3e453e8e3e071da4U, 0x3e81afde3e783919U,
  0x3ddb14f13dda1b60U, 0x3e4807d13ca3dde2U, 0x3cfa33bd3d5dee83U, 0x3e33439f3e17378cU,
  0x3e83a9753ea44765U, 0x3e9a49913ecc80d2U, 0x3eee2df63eabc078U, 0x3e9d27f23eb4d8c1U,
  0x3ee0b6933e8f91c6U, 0x3da125323e2e61d8U, 0x3d35aed6bd46352aU, 0x3e183dd43e77d249U,
  0x3e161f943dc837b5U, 0x3e05d0313e3f4ac2U, 0xbbddada33d9bd6aaU, 0x3d88facc3da431c2U,
  0x3cd73fafbc739284U, 0x3eac573e3e3fca79U, 0x3ec5e1713e87ea1eU, 0x3e6bea793ec4227dU,
  0x3ed8e39f3e81f22eU, 0x3d0d1f7a3e856119U, 0x3efce1113de152a3U, 0xbdc76a6d3e0e1722U,
  0xbd6b7f1bbdef5989U, 0x3eb809123e14de3cU, 0x3df5aba63e597618U, 0x3d9ac3483b23f4bcU,
  0x3bd265f93cf098d9U, 0xbda8e486be135d9dU, 0x3de02cfabd28f2ccU, 0x3e951d5d3e556f69U,
  0x3ea1ae653eb8e7f2U, 0x3e7e34da3ee45ea4U, 0x3e9759d63e27f6cbU, 0x3e373d7b3d9041a9U,
  0x3ea97a643e25113dU, 0x3e8a15523dba76c4U, 0xbcf8d95ebd30a0baU, 0x3ed44f4f3df44991U,
  0x3d7ee4f63e3ec35aU, 0x3d4b97d5bb65cd60U, 0xbda23f163d47267dU, 0x3ca2684cbd066a94U,
  0x3d10d511bdf08a29U, 0x3e90be653e26b27dU, 0x3e809f793e985045U, 0xbc80944d3e5f9b5bU,
  0x3dc06433bca99adaU, 0xbd9cded4bbc70565U, 0x3da240023d624702U, 0x3e39f0d23e65c763U,
  0xbdee7794bd8fbc00U, 0x3ea3dbea3e3e1000U, 0xba81f3f63e1404f3U, 0x3d38117abd8a015eU,
  0x3cac190ebcbd673eU, 0x3c0a422ebde23100U, 0xbd94dca6bce45d61U, 0x3e18d93f3d2a5ec2U,
  0x3df1e8ef3d19e10eU, 0xbe0dc3b93d6194c1U, 0xbe0f4e5bbd9731eeU, 0xbe319167be585d6eU,
  0xbe160f92bd9be035U, 0x3defc5c43e4f1ffdU, 0x3e0b278e3ca4ad0cU, 0x3e80a48e3e2a1672U,
  0xbd57011f3cdb7278U, 0xbe2fe0bfbe8fd061U, 0xbd48cf5bbdca4cbeU, 0xbd754d98bd12c4e1U,
  0xbdd6e947be200d2fU, 0xbe0e5b6ebe4aaceeU, 0xbdb06413be569716U, 0xbe08d228be47bb4aU,
  0xbdc07e1bbe8d0a58U, 0xbe595b10bd46ae21U, 0xbe85cd24be14c71aU, 0x3c2b52c73e348e3bU,
  0xbd39dc54bcf425f0U, 0x3e735f373d8de605U, 0xbdd9257bbc8275faU, 0xbe09d5eebe82f1feU,
  0xbd83249abd66eea9U, 0xbd6a471f3c82479bU, 0xbdf6ca42be029955U, 0xbe672861be8f20c2U,
  0xbe820509be321ed5U, 0xbe661d04be8cfa81U, 0xbdeb3a15be8c8dd4U, 0xbe78d2a9be5661d8U,
  0xbe8db491bea3f2e6U, 0x3ca8bcc0bd73239bU, 0xbc9229ecbd39457cU, 0x3e3873123de31e46U,
  0xbd36457d3d8a4a21U, 0x3dca227abd654933U, 0x3dc6bce5bd695eb2U, 0x3dbfb11d3cda6c03U,
  0xbdf257813d097bbbU, 0xbe1fcbe6bd332caeU, 0xbe7fa479be1f2be4U, 0xbe76d08cbe468b09U,
  0xbd4ee164be4a5835U, 0xbea1aa53be5a0589U, 0xbe0e3025be89d5bfU, 0xbc4f73603dd1372dU,
  0x3d680190bbc74fd0U, 0x3d0a2f0f3d2d6c74U, 0xbe6128933aadbbdeU, 0x3e203380bd551289U,
  0x3bf2da9bbd3f8313U, 0xbdb0b3573d913e25U, 0xbdd07c94bd9fddaeU, 0xbd30749ebd4b592aU,
  0xbd8ea384bd92ad94U, 0xbd8e3a0bbdfed7bbU, 0x3d3816e4bdd1d932U, 0xbe1e9f033b874d9aU,
  0x3e732c35bd9e1e72U, 0xbcc8096c3d8faed7U, 0x3d77a568bd74614eU, 0x3ca0bd62bda36fa0U,
  0xbed3a322bde10d21U, 0xbe397bdfbe487985U, 0xbe0d82c4be7ce650U, 0xbe0f81d7be09d56eU,
  0xbd942072be0b1bfbU, 0xbd87c808bdabc519U, 0xbe885007be63777bU, 0xbedc3640be998583U,
  0xbe709194beaf0c44U, 0xbdfd19bfbd8995d1U, 0x3df76439bde6f89fU, 0xbd47b9353e330260U,
  0xbd2c6a96bbac1e30U, 0xbdab2664bd1207eaU, 0xbe31aebdbe47a0daU, 0xbef1243abeb69a39U,
  0xbeb2da0cbef4e63aU, 0xbf0eae9fbebbb63dU, 0xbf1921cbbeee1594U, 0xbf11ebf5bf547fafU,
  0xbf356897bf20587dU, 0xbf0b6fa6bf3d94b4U, 0xbea86e9ebf050532U, 0xbea1a9aebe6f6aa2U,
  0xbd904792be0144edU, 0x3d8667443d40d1d8U, 0x3d36375cbd9d41a8U, 0xbc8f0054bd512517U,
  0x3ddc4440bd37bd12U, 0xbce78f8b3c0d62b8U, 0xbda60bbfbdf33d02U, 0xbe8df020bde695e0U,
  0x3c795414beaa8135U, 0xbe7062d1bea813d9U, 0xbe817134be94cabbU, 0xbe849676be893334U,
  0x3d4a56f3be4e5a97U, 0x3e2ab2b73e34686dU, 0x3cbe94743d470e38U, 0x3d454380baf5d440U,
  0xbd9fbaeabd03b71cU, 0x3c7dc6d03da5e556U, 0xbd91883d3da87cb2U, 0x3c62bbf8bd2f6adcU,
  0xbd1a44d6bc356920U, 0x3d178d083dacceb2U, 0x3cc6ed3cbda065aaU, 0x3d9ef5a6bc0a0288U,
  0xbd17b322bc48a7c8U, 0xbdaa4614bd4a67e7U, 0xbcf7e026bcb7b5b0U, 0xbd5e6bd9bc7e6a08U,
  0xbcd98762bd4465a0U, 0xbd6c85723b18e5a0U, 0xbd893b323d81f4eaU, 0xbda67512bc34df88U,
  0xbd979777bd60b4d4U, 0x3db4379e3dce004fU, 0xbdc140573dfa2a02U, 0x3dd7e5693daca4beU,
  0x3e00c3473e18b4d8U, 0x3de2fe4abe2dd8eaU, 0x3dc4d5993e0cb954U, 0xbe56d320be2ca210U,
  0xbc6c8146bdf8508fU, 0xbd026fa5bd5e7d8eU, 0xbd727ebcbc84d538U, 0xbd91093cbbdfc2e0U,
  0x3d8841943d95cfceU, 0x3e120fc5bdb09d02U, 0xbda843433d5b8011U, 0x3a56be62bd972abaU,
  0xbe5b794cbe937e02U, 0xbeacff50beac393bU, 0xbe234975be3ec929U, 0xbf04fd90bed6d348U,
  0xbf2704f6bf01ca9cU, 0xbf1c47ebbf2032c9U, 0xbeaf2957bedba12bU, 0xbca893e0be3e6e5fU,
  0x3d877b603c5331f5U, 0xbcd52a6c3d79dd58U, 0x3aec62803d95faaaU, 0x3e12cd57bd99f663U,
  0xbe750867be128280U, 0xbe885250be330f97U, 0xbeb52625be73d04dU, 0xbe0aec5abe86a681U,
  0xbd07fc2fbdc48543U, 0xbea26435be276922U, 0xbe4626eebe80659dU, 0xbe706629be9913d2U,
  0xbe4ee9d9be699bf5U, 0xbe686aa8beaaf230U, 0x3d19d61abe5ad595U, 0x3daa134cbd65406fU,
  0x3d418058bb30fec0U, 0x3de881b3bd9a0479U, 0xbed8a70ebe5102e5U, 0xbea1bac4bea8a65fU,
  0xbe82f2ebbeaab40aU, 0xbc955d84be5aace9U, 0xbd117c1ebdfc6bdeU, 0xbdbf7fd5bc9999f8U,
  0xbdf57a9dbe4fedd9U, 0xbdcf99bdbdffab05U, 0xbe819599bdc68caaU, 0xbe401dadbd854ea1U,
  0xbdf7ff63be9cd7baU, 0x3c94a554bc303938U, 0xbc962efc3cd42f5cU, 0x3d21e8e7bdcb2b0fU,
  0xbdece525be1c04efU, 0xbca3696dbe075980U, 0x3ca494b33d9af0cfU, 0x3ae6b8fabdd13dd1U,
  0xbbaafbb8be1265d1U, 0x3d390b8c3ca0142fU, 0x3c9c8164bd2cf6e4U, 0xbdb02be83dc77bd5U,
  0x3d7d3e3ebe007674U, 0xbb6cadc6bcde6d89U, 0xbe4a6b30bdbe9511U, 0xbe09b575be613a61U,
  0xbe0199d2bd3a1814U, 0x3e3e3ad43e78b987U, 0x3e0e8ded3d87ad26U, 0x3e1234613e450c2dU,
  0x3d35f32f3e3ce0e3U, 0xbcc898233d6d979eU, 0xbc1be42ebba2befaU, 0x3da1cbaf3d1b4ddeU,
  0x3d326ae83c8957b6U, 0x3de2e26d3d3ee293U, 0x3e2ef9c1bca3914cU, 0xbdc4a6c13e034910U,
  0xbea372f6be423e57U, 0xbe5e625abeb55e22U, 0x3dcbb5a5ba062da3U, 0x3ecae6e93ea2dabbU,
  0x3e0d65113e16bbbcU, 0x3dc7ed713e641416U, 0x3df46f053d01d420U, 0xbd5f7d743d0cbee9U,
  0x3dc1487a3db4686fU, 0xbc82d1793d80bf1dU, 0x3e4baded3df13e4dU, 0x3da4c1e43e4a5835U,
  0x3e177c723d9e8f4fU, 0xbd1c98f43d97a575U, 0xbe86a579bc800126U, 0xbd801aabbe99b462U,
  0x3ea184c13e2f7146U, 0x3dd1360b3e7d3b07U, 0x3def48e6bcc23643U, 0x3e2256f03e33874cU,
  0x3e2383b73dd8889aU, 0x3dd3a4063dab2c59U, 0x3e079ff13d46e1e6U, 0x3e67d4de3e46faf7U,
  0x3e95e43e3e964e6aU, 0x3da1878b3e2b7aaeU, 0x3e1891ae3e479e0eU, 0x3e96e7bc3d8e513dU,
  0xbe3c2756bbeab665U, 0xbd6dae08bdf1cddaU, 0x3e493ac93d4159cdU, 0x3e15ed713e8772a8U,
  0x3dfdd91239675153U, 0x3cbf5ca33cee1a09U, 0x3e2d59063e1e15daU, 0x3e7c3f233e8fccceU,
  0x3e5e72723e7437b1U, 0x3ea9a83a3e841c13U, 0x3eacfba93e959d34U, 0x3e1c532d3e93127fU,
  0xbd46102c3e0bc8b3U, 0x3e2a3d8a3df0e90dU, 0xbe2930b43d39f261U, 0xbcfe8686bef5a9e6U,
  0x3e3c0cc23df55d20U, 0x3cb6e92f3e9c70f0U, 0x3dc2641abcc51281U, 0x3d24df333db96e9aU,
  0x3e61b9993df54188U, 0x3e34fb1e3e48a0f5U, 0x3e9b0fcc3e63c4f6U, 0x3e7e109a3e550a52U,
  0x3e774efa3e97b091U, 0x3e9713953e93ef9bU, 0x3dac621c3e15b9cdU, 0x3c9f40523d71fd56U,
  0xbe5b67b23d2d2c20U, 0xbdaf36febe5f6c1fU, 0x3e7968283d8c2d7eU, 0x3d7414aa3e43623eU,
  0xbd9d2605be429b3bU, 0x3db3ed1d3d5a5913U, 0x3d3dc2443cd07d5cU, 0x3e834b0a3e214262U,
  0x3dcf86583dfd78d8U, 0xbe1e175bbe4ec393U, 0x3d242ad7be12eba1U, 0x3da45f873df09355U,
  0x3d98cf623dd7f493U, 0x3d06650f3e2a3d5bU, 0xbe625b36bc088308U, 0xbc5cd2abbe577f04U,
  0x3e97d35c3e3ba62cU, 0xbe03619b3e1c589aU, 0xbe625a03bd5e5a11U, 0x3ddec2f03d3bacd3U,
  0x3db70b583dc72761U, 0x3d6b43483e1d44ddU, 0xbead4b6bbd778194U, 0xbea084b2bf094222U,
  0xbc00a9afbe273863U, 0xbca98be23ddd9f41U, 0xbc83af0cbde8bc83U, 0x3dc1f8c23dc941e5U,
  0xbe169c3b3e316d00U, 0x3df44142be73b0caU, 0x3e76b023bd434aacU, 0xbddd643b3ea8bd70U,
  0xbe116b73be42a7a3U, 0xbb4df3ce3dbf4491U, 0xbd8b3be33c0b0622U, 0xbc0dd27bbcb853a9U,
  0xbf254134beb1d43bU, 0xbec0836dbf08faeaU, 0xbd895493be4f8d30U, 0xbd5a6bd0bcddd63cU,
  0xbd855b02be32e5f9U, 0x3d9851da3d8d1e5cU, 0x3d08f48a3e304054U, 0x3dabc835be76ef29U,
  0x3d0146353dd378adU, 0xbda68f073e875cefU, 0xbdaa6357beae6c28U, 0x3db777c33d583ca5U,
  0xbdf4bd013d05dcecU, 0xbe8828c4be32d007U, 0xbed564b8bebcb458U, 0xbe2d621dbe98329dU,
  0x3bd76724be386bd6U, 0xbd9113273c471160U, 0xbc7053c0bdd5d002U, 0x3e027a4dbc858f63U,
  0x3d82bb273ddfe377U, 0x3dd5f98a3e29a388U, 0xbdbda52b3d98ab22U, 0xbe948b0c3cef8972U,
  0x3d0a1f8bbe2c6e9bU, 0x3d9af5c03cb52f79U, 0xbe315bc5be23c322U, 0xbe9dc017be2c46d6U,
  0xbeacf055be9bff35U, 0xbe1f6379beb85756U, 0xbd90126bbd5c54acU, 0xbda6b74c3dacb3ecU,
  0xbc69a9793cffd4deU, 0x3d8755843b8e2282U, 0xbd3418a93e074306U, 0x3e30cb733e8426ecU,
  0xbdec800c3ddee096U, 0xbe9a472dbdbb43e7U, 0x3b4c0a38bdf9af38U, 0x3d88b8e0bdf456c1U,
  0xbd9fdbff3ccc1b24U, 0xbe3d3b51be668680U, 0xbec0b4e7beb3100cU, 0xbd05df21be968db7U,
  0x3e29eb7f3cf65162U, 0x3c9e4b323caf0f28U, 0xbd2957a2be02f77bU, 0xbdfc7e7c3ce2b6f2U,
  0xbe3d987abd6df76fU, 0x3dd730f03e671d78U, 0xbdd370723d1a4ca2U, 0xbef404f1be839320U,
  0x3bc0201abd58dba4U, 0x3da0f124bd52f11dU, 0x3d6c3b5a3d4849c9U, 0xbded1595bbb02899U,
  0xbe814732be9faa05U, 0x3dd82491bdcaa05eU, 0x3da29ca93d77717dU, 0xbcb8e0bb3d8282f0U,
  0xbda9e893bdb86929U, 0xbd3c807d3d216d6bU, 0x3e5b0f5a3dff26ddU, 0x3dce08933e88bf6eU,
  0xbddbc0883e30066bU, 0xbf05ca06bdb042e6U, 0xbd902eb4bd27d096U, 0x3c2b95c1bd780372U,
  0xbd1285ee3d223553U, 0xbe3b3d45bc289bd2U, 0xbe1ac609be889a50U, 0x3e0ab9d53b35885bU,
  0x3dbb1cfd3defdd06U, 0xbd206b5e3e114d00U, 0xbcfc366bbca9f794U, 0xbd0832573db106f6U,
  0x3e3e6940ba329663U, 0x3e849d173ec5a2e6U, 0x3e79816c3d5a0d04U, 0xbef2b5f13d08c9f7U,
  0xbe1e0d30bb8cea06U, 0x3dec69fdbde66629U, 0xbd885bd0bcfb48e9U, 0xbd6fe00bbae6f0faU,
  0x3d0ec5063d30b3f8U, 0xbd1a8a743d9b2228U, 0xbb9c341abc270561U, 0xbd87f333bda13386U,
  0xbcae8ff63ddb81aaU, 0xbd54e68f3c9d4f6bU, 0x3e16db653e2911ceU, 0x3dcc99153ed6ede1U,
  0x3c767c22bd4d67e4U, 0xbdd713d4bded409cU, 0x3e23f38d3d9fcf7bU, 0xbd9b1a023cb50e2cU,
  0xbcc9ad2d3d1ee936U, 0x3dd08bb3bd1465cbU, 0x3e1e9de53e4dee5dU, 0xbbba503b3d915e4aU,
  0xbe2cb6bdbdd57c59U, 0xbd7a70c6be32c420U, 0xbd8a0d36bdf0dcffU, 0xbc8cbef9bd2f0ea3U,
  0x3db5f007393b63d2U, 0x3d8b50a23ebd64d9U, 0x38b29c003cfdf304U, 0xbd9a80fbbd859f46U,
  0xbc15c6a43ccb712aU, 0xbcba71c2bcae4284U, 0x3b69307fbda9da42U, 0x3df86feb3e3920f7U,
  0x3e0cad803e23689eU, 0x3d85a857bca15609U, 0xbd9d1b69bc23438fU, 0xbe36dca3be457557U,
  0xbda84aa9bdaa6339U, 0x3cee0b703c813d6cU, 0x3e6cf7a03e605920U, 0x3dae77763ea10b13U,
  0xba2f7ab4bd9ba52eU, 0xbe0a0612bd2d54e9U, 0x3d0e96c6be49cdbaU, 0x3df6073e3defe09dU,
  0x3e522a703e401327U, 0x3e07d3e53e36489fU, 0x3dd3ddd73ddb9792U, 0x3d45a55f3e0b5523U,
  0x3c4cee0d3c974945U, 0xbdce7ab9bd2228d1U, 0xbe0eb853bd8257f0U, 0xbdccf99c3d427955U,
  0x3e62bb113e23a9c3U, 0xbcffea0c3cd37152U, 0xbd84fe22bdb0178bU, 0xbec82bb5be5a887bU,
  0x3d0c46e1be2b4e99U, 0x3e06c9813e1c9027U, 0x3e11b0fb3b61e68aU, 0x3e6486bb3e44aa5aU,
  0x3dcca2643dacbe47U, 0x3d9620703dd41457U, 0x3d326450bdbe0996U, 0xbe0fb2f7bdc6a47dU,
  0xbdfd603abdc1c81fU, 0xbea1c6c1bd98e235U, 0x3dc2e2bf3c591830U, 0x3d3a6b90bd810a2dU,
  0x3c5873c8bc62d340U, 0xbe51f677bd752a31U, 0x3e2953583d100071U, 0x395917493c486969U,
  0xbd69239c3cab923cU, 0xbdd8157fbde22697U, 0xbd986604bdc4f25bU, 0xbdb1c265bdcc7b89U,
  0x3da366a3be292ccbU, 0xbdbee2b7bdf9e25aU, 0xbe0cfe78be2be9a9U, 0xbe9247b6be56bde0U,
  0xbd6cbfb53e2a2f4bU, 0x3c7ee7c83d8a2cf0U, 0xbdac5ac8bd5b91aeU, 0x3e110473be426868U,
  0x3d21c83d3dc2bd15U, 0xbd17b026be3fda20U, 0xbe0b2962bd8ba105U, 0xbd8f58aabeafede2U,
  0xbe0b4bcebd808881U, 0xbc89dbdc3c85fa0cU, 0xbe0a1dabbd3d8321U, 0x3d4a366b3d236804U,
  0xbde37ad2be26db08U, 0xbe1f82f03da4fc57U, 0xbcfcef4b3dac8772U, 0xbd1103273d529228U,
  0xbcb2a09cbcf57f4aU, 0x3d0e863fbc4ff010U, 0xbdf4d9afbde13a37U, 0x3dc0660bbc411845U,
  0x3dd0b4193e1d0974U, 0x3d31be903d793c3fU, 0x3e20ba5ebc96d13eU, 0x3e4778ae3e140762U,
  0x3d1beb523d0e27e9U, 0x3e93edd73ddd7f2aU, 0xbe0780e8bcbda4fcU, 0xbdaa6ce53c6cd21fU,
  0x3e25f5ab3d22b36dU, 0x3c836440bd06c33fU, 0xbd7fa6c03cd3c724U, 0xbd64fbbebd7078b4U,
  0x3e31882a3da25f58U, 0xbd06a8743e490cb4U, 0x3dbce7d13dfba36bU, 0x3a7c39c83e4e6c2aU,
  0x3ecfcc30bca1be31U, 0x3d2b99133da45427U, 0x3e92f4453c1cf1d6U, 0x3e6a769c3dbdada3U,
  0xbdc8cf37bc9c6304U, 0x3e687a50bd037e63U, 0xbcb66fec3da10f32U, 0x3d2566143cbe4a04U,
  0xbd82a01fbd5186abU, 0x3d6604f83b23e000U, 0x3c8aec483d89a97aU, 0xbd84f7b6bd10901aU,
  0xbd5d3831bda229c3U, 0xbd134c483c7c0300U, 0x3d5ae0123d1e66acU, 0x3d49e1cc3d9b5c93U,
  0xbc963dd43da112acU, 0x3d3917e83d902018U, 0x3d8c66783d7c8e8cU, 0xbd6d464ebccf8d90U,
  0xb9dbc9003c4948d8U, 0xbc242e60bc557238U, 0xbc407e683d92f3f6U, 0xbb674ca03cba888cU,
  0xbd51eecebd075f1eU, 0xbcb828183d8955faU, 0x3de4ee773e2099d7U, 0x3d96a9f6bcb66aacU,
  0x3ca5c3a23dffed6aU, 0x3dcbe1ccbcf4f715U, 0x3e678cba3e843f65U, 0x3d6ad3acbe012539U,
  0x3de4c25d3d6ac280U, 0x3e43844e3e0458cdU, 0xbd69381ebd6852d0U, 0xbd4f227fbd5cafe7U,
  0x3d0bb75ebc1dd240U, 0x3e5577443daba824U, 0xbda5ade53ddfb3ffU, 0x3d5a9299bdde0b88U,
  0x3e7a13ce3d78a5a5U, 0x3e3c45053e50a1b8U, 0x3cc6dc7a3e106c3aU, 0x3e1282af3da62078U,
  0x3e0017d63e8bb712U, 0x3e11805f3d9cfd17U, 0xbd1b81e03d4f0d76U, 0x3e4be8de3c8605a4U,
  0x3dcc145f3c895a9eU, 0x3c9badc0bd5ac2b3U, 0xbc884618bd6ad613U, 0x3e4bba8e3c918b5eU,
  0x3e252d233def6634U, 0x3e4dd3813e456565U, 0x3ea25a843ea1bf5eU, 0x3e8570713e51f837U,
  0x3ea641ab3ec81dbeU, 0x3e89cb053e5761faU, 0x3e414d6d3e253efaU, 0x3e3e9f4f3e223d62U,
  0x3d43aa5e3e1e74c4U, 0xbe49599f3d1629dbU, 0x3de37633bdb34123U, 0x3da2caf03e1a56e2U,
  0xbca51cbebd626354U, 0x3e8a42d3bde92ed8U, 0xbd56bce83ce70b78U, 0x3c3fc817bd35dd0aU,
  0x3de1e1333d839e37U, 0x3e3b6f443dd3136cU, 0xbc7b5429bb07af56U, 0x3e05c95f3e31fe91U,
  0xbd6b5f41bc9f9541U, 0x3e0c12263e1dd204U, 0xbdc23e263bcb9fd0U, 0xbe412495be7374fdU,
  0x3dcce29dbd1b7e44U, 0xbdd075acbdb9b235U, 0x3daf5dd83d225a0cU, 0xbcdc6ae9be17a5b6U,
  0xbe7ef965be376eccU, 0xbe55d613be967146U, 0xbd390bf1bde75c1eU, 0x3d6e245b3ca04303U,
  0x3d0bf93ebd343cdeU, 0x3e365d973d9cf7e6U, 0xb900b6883e0b186fU, 0xbd574bbfbb3252c3U,
  0xbdbd0492bba2c939U, 0xbe04a3e43d7a3a03U, 0xbd87dbd23a2158a9U, 0xbde12745be33f00bU,
  0x3e52fc783d8ad144U, 0xbd9b22f53e46095eU, 0xbe8861c4be212cc3U, 0xbe215355bdeb01f4U,
  0xbd8045c7be2567c1U, 0x3e5898883e28d0feU, 0x3dc8f71b3e1ca06bU, 0x3d9860323d8ad210U,
  0x3d8716323cebcfe3U, 0xbcd152a63dc9e984U, 0xbd18f26abdd09af3U, 0xbd9ddcb1bd0e2de8U,
  0xbdbe16edbd8ba6c8U, 0xbe031b183daa8118U, 0x3e7a8092bcf202e4U, 0xbb148e813e1d1e31U,
  0x3a749025bddfaab2U, 0xbda13aa9bdc197d4U, 0x3d8fd7453dadc1f2U, 0x3d9cd7163e3504acU,
  0x3c6545f43cfffe0dU, 0x3d8732993e7c60f2U, 0xbd9b99a7bd221c32U, 0x3da189dfbdb26ef2U,
  0xbdd41288bd2e4bfbU, 0xbdb80a543dcadf59U, 0xbdab86303c1d1fecU, 0xbe2bd86cbdbd5862U,
  0x3e57af66bdcff58bU, 0x3e2580443ddc2ee6U, 0xbe544f41be440527U, 0x3db076bcbe473085U,
  0xbe124e52bd584c28U, 0xbd35ff80bd22367bU, 0xbe26de7dbe3ad01dU, 0x3d7a6314bda6e19fU,
  0x3bc6dc5abd8c200fU, 0x3d7d312b3cfe1676U, 0x3bb525d83dac706dU, 0xbc9a595f3d8816a2U,
  0xbc0023f1bc88ac5cU, 0xbd84f4ef3d5f5b03U, 0x3e13e4793c9a9540U, 0x3d6fb1a53e7936e0U,
  0xbeacd66cbebc28ecU, 0xbe6b8d23be8b44b6U, 0xbeae6528be5580a1U, 0xbeb53fe0beb7ff0cU,
  0xbf0b8957beadf939U, 0x3b1cea9fbea2d3b8U, 0x3df564663df642f1U, 0x3da4bd2f3dd7a2a2U,
  0x3e5e5e3c3e1e5c30U, 0x3bfc9dfe3d9559feU, 0x3ea31e5b3d77deadU, 0x3e09141b3e0cb672U,
  0xbc70f0903d2d30c8U, 0x3d8ae76e3e946890U, 0xbee0d6ccbe7afdc6U, 0xbf248452bf181248U,
  0xbf08dd68bf207ac9U, 0xbed35fcebed9c3d3U, 0xbee6ebeabf06817aU, 0x3df43179be4855e0U,
  0x3e62bf2d3ebcd699U, 0x3d0998303df8b667U, 0x3e29743d3df70147U, 0x3d0fedce3e0c2f16U,
  0x3f1f9a073e9baffdU, 0x3d6770033e997f7fU, 0x3df7f39cbd9c9340U, 0xbc5b42a9bd683e59U,
  0xbef9e388bea1fc0bU, 0xbf00e777bf1add10U, 0xbee2b161befa4ce0U, 0xbe564a4bbe9bc060U,
  0xbe9fb5aebeaa71eeU, 0x3e267a0b3d1df91bU, 0x3bc9b5973e3aea43U, 0x3d5736413cea5749U,
  0x3e00a60f3daa174cU, 0x3dd108423d3219ffU, 0x3eceabb13e4a710bU, 0x3e16a091bbbcc207U,
  0xbdbcd81d3d07853cU, 0xbc880564bd983409U, 0xbecf4c6fbec56e00U, 0xbe9a1f89bebdd4bfU,
  0xbe0ed9aebe8ad4f0U, 0xbdc11c6b3cafac96U, 0x3dc35b74bd8d21e6U, 0x3e09eeea3e210382U,
  0xbd7246813d4b419dU, 0xbd3ed3fa3c9b9eb0U, 0xbe7fbb603c2106c5U, 0xbed596abbed08566U,
  0x3d8f255dbe692e40U, 0x3dc5f9d43e056b56U, 0xbe10f6d7bda0e85fU, 0x3d0946b83d86e606U,
  0xbe491f96be27df51U, 0x3da5a51e3cdf9f49U, 0x3dfa9ff13e1e9f59U, 0x3dca99683dbdeecbU,
  0x3e5ef7f83df12946U, 0xbd31b6f13e573404U, 0x3d15e2dd3cdc86a2U, 0xbd10d1a53c3d2d8eU,
  0xbe256a26be0b82d8U, 0xbe9d893cbe888cf1U, 0x3c3538f1bd8213eeU, 0xbdafaf213e280c13U,
  0x3b064645bcef72a7U, 0x3db34a283c760a71U, 0x3dec88b83e297471U, 0x3e33013d3dd8e672U,
  0x3e352c7c3d60c605U, 0x3e3c664a3dca9edeU, 0x3e17e0053e3a410aU, 0xbd6126e43dd3e4f7U,
  0x3be3e5613e012197U, 0xbccb06373e4f829bU, 0xbe193b9f3d94b752U, 0xbd763740bdce7c39U,
  0xbe4a2c76bd6aa57dU, 0xbce7c5eb3de19d73U, 0x3d42a29fbd49b74aU, 0x3d825e33bdc00564U,
  0x3ecc87503e9bb451U, 0x3d04ac873e8a8078U, 0xbde317d0be27af67U, 0xbc2175dc3b523845U,
  0x3d6bca72bd1d4706U, 0x3d1952d2bdb2f37aU, 0x3da5c1be3dfd79efU, 0x3e027e0f3d41cb8dU,
  0xbcb2cc183cdc1e4bU, 0xbdc7903abe9137d2U, 0xbe32f4833d2f35e4U, 0x3d2b9e40bc1352d9U,
  0x3dfad853bc8b8ad0U, 0x3e74b860be1a16ccU, 0x3eca40743ebfe659U, 0xbdbba5643e856a25U,
  0xbe1f2e48bdfab8b1U, 0xbc6240f3bc800dd2U, 0x3e0d959c3c46e1adU, 0xbda3b8efbd844d40U,
  0x3cdf9cf7bde29a13U, 0x3d843614bd2a93f9U, 0xbe0b2e74bdfa46bbU, 0xbea522c8beb6cdb6U,
  0xbd298d68be9bcfa2U, 0x3e0bdef13e069b7dU, 0x3df155e43d546504U, 0x3e782d0e3d35b5a5U,
  0x3e4d87923e8e6b3bU, 0x3d9f1f3f3eb91885U, 0xbcbf1bdd3dab7a2cU, 0x3d7b1753bd37d490U,
  0x3d697404bd57c94aU, 0xbb2a6cdabd1dd176U, 0xbd529193bdb47a71U, 0xbe0e4a73be086b0aU,
  0xbebb38ffbe59df47U, 0xbe90df86bebacec7U, 0x3e2f988cbe06810bU, 0x3e871a5f3dd4ed39U,
  0x3dd281313e41f697U, 0x3dbaa78cbe07d957U, 0x3ddf4a623d96f2b1U, 0x3e06516f3de7fd2aU,
  0x3e479caf3e6751fcU, 0x3e3318e83e8f0409U, 0x3e885d713e9d1c04U, 0x3df079e43e3e2ef8U,
  0xbd459f593d8d628dU, 0xbdff3bb1bda7e786U, 0xbe3f385fbe47ff46U, 0xbe177be0be336e23U,
  0x3e5ec43ebd68584bU, 0x3e8be3583e29fb65U, 0xbd14edcebd111001U, 0x3d05e234bd83efb0U,
  0x3b2102ecbd3c48bdU, 0x3e32a5023d800e45U, 0x3ea234b33e268059U, 0x3ea371843e93c11eU,
  0x3eb581fe3ea5a2efU, 0x3e00485b3e9e2104U, 0xbdc17d393d0d89a0U, 0xbe183ce7be1e9e43U,
  0xbe4f3763be29cd5eU, 0xbc636fbdbdfb38e9U, 0x3e04837c3e63d946U, 0x3e17154d3d0bd409U,
  0xbe10fbc4bbc00870U, 0x3dc1ee3bbdc3a44fU, 0x3df36933bdfb2dd3U, 0x3d65e8483d776720U,
  0x3e5721393e2b6e07U, 0x3eac97783e9b71c2U, 0x3e728ddf3eb1d882U, 0x3d83059e3e0990c5U,
  0xbdd19651bbd6cf7bU, 0xbdd921a4bc13ffebU, 0x3d1f885bbd2cf523U, 0x3dea6bb43b6abbfeU,
  0x3dcfd5fa3de8e611U, 0xbd7448443d805aa5U, 0x3dbf19693d2003c7U, 0xbd6ee5953e4c4e7eU,
  0x3d41a483ba5d86f5U, 0xbd4baac23ce98322U, 0xbacd24823cab374fU, 0x3d1246b23dfb8125U,
  0xbc752bfbbd27ea97U, 0xbd8b76bbbd7d3a79U, 0x3d9f2ec8bcfa7d33U, 0x3d4b2bf53c808de3U,
  0x3db8af6cbcc2f6a5U, 0x3dc7bfe73dd37a64U, 0x3ea489f33e3f561dU, 0x3dabb0003dfefd11U,
  0x3dc663fc3ce54691U, 0x3da5bd4e3d32c279U, 0x379710903de32240U, 0x3bf3cf3cbca43e3eU,
  0xbdfc9855bd4c4522U, 0xbe5472e4bd9146a6U, 0xbdf2f394be579183U, 0xbdd9827dbd8d0214U,
  0x3e0842803cc8c58aU, 0x3e515e673dd9b467U, 0xbd26c97abb9ac0e5U, 0x3e7879343e1ff06bU,
  0x3e51c2653e1cf3d9U, 0x3d70576c3e365acbU, 0xbc9325dcbdaa50f0U, 0x3dec36a83df77fa7U,
  0x3dc8153b3db6f89cU, 0xbd9eae13bcf8c350U, 0xbe36a6acbe6d568eU, 0xbe1cc568bdb4fa0cU,
  0xbe5bbc9ebe1eddbcU, 0xbe4100e9be3d8bc7U, 0xbd328114be2f9dd6U, 0x3d9916193d863625U,
  0x3e03ef03bda981e8U, 0x3e9100463e5cca90U, 0x3e896c613e6ec5deU, 0xbd2d6f4e3e8e17c4U,
  0x3d45918c3d9d6616U, 0x3ed01ef7bd8617e6U, 0x3ddf81e83d434b0bU, 0xbe65aee8bbc0ffe2U,
  0xbe31ce60be4aafa1U, 0xbe294d3dbdb51f70U, 0xbdcee1ecbdc10a4dU, 0xbdd3308ebe299454U,
  0x3e03a405be48858dU, 0xbe226140bdabecb8U, 0x3e3d54d1bdbb3ba8U, 0xbcd959863df473c7U,
  0x3e5b42fe3d7a0189U, 0x3d8e07523e038297U, 0xbda8fb713d73fa98U, 0xbcb83c88bc035d8bU,
  0x3c1882cd3cc5a0a6U, 0xbeb39bec3c83a3e5U, 0xbe9bbf9ebede5a4aU, 0xbe38eb30bdfb6a56U,
  0x3db401443d2f6798U, 0xbdacbaecbce9703dU, 0x3e33d7c73b53dc69U, 0x3cd289e03e0b3295U,
  0x3c967817be026a13U, 0xbe4ad03cbbc654e5U, 0xbb6c7aa03cc416acU, 0x3d07863c3bb9b310U,
  0x3c61b8d8bce00498U, 0xbd89141dbce62d7eU, 0xbba45043be5973f2U, 0xbe573d1dbe0c192dU,
  0xbd94df24bdada3f8U, 0x3d8748a43d384b5bU, 0x3e5a7ee73d99b759U, 0x3e08f24f3d9bcaafU,
  0x3eac7d9d3e8cedc1U, 0x3c628bc33d7f7feaU, 0xbe116a4c3bc5c0e2U, 0xbd88b7283cc29bebU,
  0xbcee7477bc9290b0U, 0xbcd84fd43d673940U, 0x3dafa9f83d8f7242U, 0xbc4a21c83d2b2c10U,
  0x3de04ebfbb3d745bU, 0xbbcb693c3cb6fbf5U, 0x3c81e1b33d8c1935U, 0x3e4b88ec3e4721e4U,
  0x3e65700a3e260735U, 0xbcebecb23e0ee53bU, 0xbc5d6a0e3c58d760U, 0xbab6d367bdf075f7U,
  0xbcb3a184bd5accdbU, 0xbb45da003c97c2c4U, 0xbc6b1cd83d691828U, 0x3cc42158bdab712eU,
  0xbd3ae5a1bd171e0cU, 0x3ca04e20bcbcd504U, 0xbc8a16e43d0b578aU, 0x3d5984803d1faa5cU,
  0x3d064e3abd7807f1U, 0xbd1b3c00bd570351U, 0x3d3be598bcc4b1c8U, 0xbd8e6b213d238e18U,
  0xbd85de9ebd1d5115U, 0xbd0cfbacbdac9e7cU, 0x3d8071b4bd71881dU, 0xbd4fd67abd6d7a87U,
  0x3c4de8e0bd6c6b5aU, 0xbcaf75ccbd3dca73U, 0x3cfb6024bd79614aU, 0x3cf70d3c3d17b818U,
  0xbda80855bd218d3cU, 0xbe5dfb0cbe0ac00fU, 0xbe283b8bbdb3ff3cU, 0xbdfc8958be49780bU,
  0xbe87b935be85cf60U, 0x3d6911343d306ed3U, 0xbd92e9153ced35d2U, 0xbde5e146be09461aU,
  0x3c8ffbd9bdfc3524U, 0xbd071108bd11680fU, 0x3d40d24cbafd0f80U, 0xbc4b2fe83c1ad680U,
  0x3d7c8dd03c4dc320U, 0xbd4bc0fcbc423dc1U, 0xbe0dee01be450b7bU, 0xbec9bec0beaca858U,
  0xbe0855fbbe22da0eU, 0xbe15fef9be5c078eU, 0xbd03b25cbe0fc6f2U, 0x3e4ed56fbcfe0a0aU,
  0x3e0281983dfea5d8U, 0xbd113caabc3ab100U, 0xbe2d7e8abdb201eaU, 0xbde8bdbebe0e46e0U,
  0x3dbc4fb4bde86e54U, 0xbd6eebe3bcf35a5cU, 0xbd9dee60bd2aca65U, 0xbd7520ab3cc79fccU,
  0x3d06c849bd1aea15U, 0x3cdbedd0bd23ca87U, 0xbe1ff779bd4a19feU, 0xbdda3e88be5cf151U,
  0xbdbdad633c66376eU, 0x3e482008bcee7b5fU, 0xbcc4470e3d81859bU, 0x3db087523c2bcd0dU,
  0x3dc1ef7b3c35e9bbU, 0xbe885be7bdce5313U, 0x3d8194ddbe1d75c7U, 0xbcde227abc83bfc8U,
  0x3de2ea0c3da2c88eU, 0x3e28e1103e0fe0bbU, 0x3e076d793df49a56U, 0xbbfe52123e4bd672U,
  0xbcbf81093d86a62bU, 0x3e120ce43e1cde50U, 0x3dd651c43ea073c8U, 0x3ea318393e79b3faU,
  0x3e87a4a43eb0391dU, 0x3e55587c3e468b3fU, 0xbc95f09b3ce9d4a8U, 0xbe154e8dbc927d44U,
  0x3e68a8bd3e205575U, 0xbe078c38bc894f6dU, 0xbcd0ebb2bda42653U, 0x3e3c74753e5f2976U,
  0x3e3872293e9dadbbU, 0xbcf3652b3e104700U, 0x3d32ab823bdf08b4U, 0x3d954cda3d889c9eU,
  0x3cae8ce03e01be13U, 0x3e11fe8b3dd84b31U, 0x3e4348fb3e851c88U, 0x3e2b23b03e33999bU,
  0x3dcdf5083e682514U, 0x3e22e2373e10f4e8U, 0x3e605ea83d6cf520U, 0x3ccac0183e33726cU,
  0x3e4792f03d3bac10U, 0xbd76410cbe3cc4ffU, 0x3e11bd483d395a6dU, 0x3bc6a9a2b7697638U,
  0x3e11f6103de3cd21U, 0xbd6bc65d3d39d850U, 0xbdc9142abbc7e8a5U, 0xbd62d216bd923b69U,
  0xbdff465bbd5d5f24U, 0x3d323848bcbf6abcU, 0x3da926b23d489797U, 0x3e5c6dae3e378be9U,
  0x3e9ff9e73ea9626aU, 0x3df2b4df3ec6e402U, 0x3d37bbe53cad85fbU, 0xbe6b4b08be861b60U,
  0x3e4c53f03dfb4a46U, 0x3ded6d983d71b9d7U, 0x3dbc2abf3e0a5192U, 0xbd9a36aebd1f1ef1U,
  0xbe30d515be07052bU, 0xbe3a9f82bc7b8f69U, 0xbdc21142be2e1700U, 0x38da6abcbdb3fad8U,
  0x3d14d6143cda24a0U, 0x3e57ebb43e2335daU, 0x3ee318c03e519d1dU, 0x3d7795bd3e8186eeU,
  0xbe11844d3ca0dc0bU, 0xbddf9425be6e7006U, 0x3d25cb783d427a88U, 0x3e21df253de07529U,
  0x3c714ec13cd93fc4U, 0xbe05fb34bd8750bcU, 0xbd8c767cbd613303U, 0xbe198490be58a644U,
  0x3d4db958bdc16391U, 0x3e232a1d3ce47bbaU, 0x3df2f0e73dc7034eU, 0x3d5b5fc33df6f301U,
  0x3ef3297c3e554133U, 0x3dcbca703f03bf47U, 0xbe8be5a2bd2aa612U, 0xbe483dd83cb749b4U,
  0x3d82ad2e3d45b7d4U, 0x3dada40b3c99afaaU, 0x3c8d09953d20f5beU, 0xbc87727c3cb5c6c4U,
  0xbe219070bdf9383bU, 0xbca4e154be0d3fcbU, 0xbd4611ccbcf45035U, 0x3ab563333c813f61U,
  0xbcc026ef3e05f18cU, 0x3de115bd3d93339eU, 0x3efd1a643e66f792U, 0x3dfb034f3eacd97eU,
  0xbe6ef3ddbe008043U, 0x3ba68c23bb6e47a2U, 0xbd83c92a3cb3d2fcU, 0xbca6f28bbd61186cU,
  0x3d2bb80b3da53f55U, 0xbd8df039bcbaf79fU, 0x3cbe1ad6bc065140U, 0x3d027eb0bd8c2b81U,
  0xbdfec7e5bccaa199U, 0xbdc3bdb4bd607194U, 0xbe1ac3b8be3ea44fU, 0xbe60f5c2be920448U,
  0x3ed341673c6f0ea0U, 0x3d343a753ed45312U, 0xbe3ddfd5be6776f6U, 0xbc2302f3be4f443aU,
  0xbd573b3b3ce2fe9aU, 0xbd6eb8b5bdf1519fU, 0x3cf87aaabd1d1eceU, 0x3d302ea8bd287e1dU,
  0xbce47a813cdd442eU, 0xba1987babdcc9fd3U, 0xbde78eadbb78a5f7U, 0xbd293285be0e5ab0U,
  0xbeb73896be87ceacU, 0xbf181849bf096850U, 0x3de67db3bee078c5U, 0xbd3f81803dfd8ee2U,
  0xbe431c2fbe29b9c6U, 0xbcfe6f95be86c8a2U, 0xbdfc8844bdc3d9e1U, 0x3ce9f216bd861901U,
  0x3dd964ef3cb9229fU, 0x3e61645a3e4e480aU, 0x3e265bd13e6c7d38U, 0x3d89ccc13df17866U,
  0xbe3ae994be386ec6U, 0x3da6bbdabd5d7f68U, 0xbea0d104be273ff9U, 0xbf310139bf250f41U,
  0xbeab3fb4bf4c082eU, 0x3c3648943dbe6236U, 0xbdba813a3e1c6996U, 0xbd93e71abeaeb5e2U,
  0x3cc65d4bbe780af1U, 0x3ca692d93c2128c9U, 0x3d5f7aa13e053f22U, 0x3dd91272bab2436aU,
  0x3e0231c13e700850U, 0x3db2c89c3e24e41dU, 0x3d23d9b7bda983f9U, 0x3d5b6a343deee949U,
  0xbe8c7579be1e8051U, 0xbee53527bec9a420U, 0xbecb9742bf0e5d70U, 0x3c439444bd6cf2c1U,
  0x3cae0ff53ddf0a1cU, 0xbc0ada02be57a01aU, 0xbe0b0a48be243c0bU, 0x3bd7ae763d5ab19aU,
  0xbca542373d204e8bU, 0xbdf65234baa5bac0U, 0x3d786df03d2a9aaaU, 0x3e41a2e53e932e07U,
  0x3d4ac3b93de31835U, 0xbe479addbdea7391U, 0xbe982205be37055eU, 0xbea1139bbeb4bd13U,
  0xbe6e6d3dbe8f2599U, 0xbddf8f84bc1739d9U, 0x3dff7d9a3d6bdc8cU, 0xbb170fb43e974905U,
  0xbe630927be77fc13U, 0xbe1d5ed9bbd8ca3eU, 0xbd891af93c8de65eU, 0xbe073389bdc73da8U,
  0x3ea129673e202111U, 0x3dc690b73e9cb553U, 0xbe19ab583df1321eU, 0xbe00523bbde62eddU,
  0xbe85bb69be52722aU, 0xbd29057bbe6e901eU, 0x3e41349a3e087beaU, 0x3e2efa5a3e32b0d3U,
  0x3e7308a7be2d2e08U, 0x3e030d6d3e628d07U, 0xbe5f9f96be65a48aU, 0xbea15884beb15acbU,
  0xbe455689beb73144U, 0xbe08bc2bbe41f4bdU, 0x3e96e6af3d102da6U, 0x3dc14c543e5504bcU,
  0xbdc8e953bde281c6U, 0xbc3b7517be2077e9U, 0x3d6d027dbc5bd6bcU, 0x3e2a80023cbc87dbU,
  0x3e6ecc093e911b0cU, 0x3e2333783e97f23dU, 0x3e4df5edbc97bde0U, 0x3e44dcdf3d6cc5e4U,
  0xbe646ba6be23a090U, 0xbebb0c7ebe8cde13U, 0xbe65dac7bea55d45U, 0xbe734c3bbea5a6ecU,
  0x3d70d215be51c328U, 0xbda6d2db3def0dbfU, 0xbcea4b293b470191U, 0x3daee5373c259014U,
  0x3e95fd2d3d4dd34cU, 0x3e20aec83e111268U, 0xbdb2018f3df3c8deU, 0x3e1263963e72b014U,
  0x3dbb77dabe712f85U, 0x3e8da2f63d9e3762U, 0xbd3f656d3e0302e6U, 0xbe9edec1be21b604U,
  0xbe818b12be5f74cbU, 0xbea15597bebecb2eU, 0x3c7a4f6cbe1f9754U, 0x3c4ece713c83399bU,
  0x3c886a343df82594U, 0x3de511e03d640f7dU, 0x3e80537b3dac9795U, 0x3e6f83bf3e28f65cU,
  0xbd87c7a43e2ac20aU, 0x3e50dc18bdcce739U, 0xbe4cb7c43d9d7220U, 0x3e3f9061be1d7ba0U,
  0x3d0713b63e4199a6U, 0xbdaf15eb3ced42e8U, 0xbd16aae1be409736U, 0xbe621344be107faaU,
  0xbd92640dbe7a332fU, 0x3e17cd86bd0e4acfU, 0x3e1b9ae63e8729aeU, 0x3e35f83b3e15ee8cU,
  0x3e1a50ab3e8354dfU, 0x3e7c345f3da46ac4U, 0x3e56b9783e4e1262U, 0x3e2b8bf73e2abb67U,
  0xbcb97bf73d9f08e8U, 0x3e71adc9bdba9d42U, 0x3d28c8233e50d649U, 0x3d1b27e03e3a9391U,
  0x3e1ee2823e208252U, 0xbbe78b753ca7b10dU, 0xbccdd33bbd40bf88U, 0x3e3a3d833dbc038eU,
  0x3e2c6c1a3e6ee6a0U, 0x3e059c833ebf6a27U, 0x3e9a04553e987929U, 0x3e2dbb9c3ea26574U,
  0x3da9c8c3bd89f35cU, 0x3e0ec6fc3e5636abU, 0xba21f5d13e08fef2U, 0x3e5684c23a3ec50bU,
  0x3d8213213e3501c7U, 0x3e1375a03df119c7U, 0x3ce59de53e10f8beU, 0x3dd3bd2b3da90290U,
  0x3d4c6f1c3ddf2033U, 0x3e181e813d62a389U, 0x3e4b9ccb3dc63445U, 0x3eb23efd3e3b9965U,
  0x3e6d229a3e979a7aU, 0x3e442c623e869962U, 0x3e1391ecbd93e19dU, 0xbdf276213c82cbecU,
  0xbc4bd2143e0ec23dU, 0x3e35e61f3bca6864U, 0xbd08208e3e040d6fU, 0x3df867c73cad19edU,
  0x3cc27fbd3d845e8aU, 0x3e2e85e33d9d4ba2U, 0x3d0f2d543c506057U, 0x3e2974233d5a6786U,
  0x3e6599483e1a3124U, 0x3e66045b3ec974dfU, 0x3e1335b33e5e5cd1U, 0x3e425ee13e6198c7U,
  0x3d91902f3cda6b55U, 0x3cef2acd3dcf1cb4U, 0x3c7c0a30bd40a7d8U, 0x3ebb353a3da201f5U,
  0x3ddac0e23eb277cfU, 0xbcae2bce3de2ac92U, 0x3e2de5d63dba8b74U, 0x3e5655ec3e055783U,
  0x3e3b98993d9e33d5U, 0x3de656a43da174aaU, 0x3e852c6b3e68ccf2U, 0x3eaadf993e931eadU,
  0x3e3103a23e9cf5a0U, 0x3e74f8323de73cf7U, 0x3b9e22833d87cbbeU, 0xbd15780e3ed4d831U,
  0x3c914b04bca40ab4U, 0x3eb697b93d2b556dU, 0xbe2005753e23991bU, 0x3daa5b12bca78837U,
  0x3d8c474b3d6354d6U, 0x3d9384f43d83c1f7U, 0x3e0132683da4f6faU, 0x3d9e03083e61a386U,
  0x3da735f73de9d187U, 0x3dd56eb23e96cbc1U, 0x3dd0ff633e106041U, 0x3de1d0723e112daeU,
  0x3ddbcdd43c7a6ce9U, 0xbbfa77803d043063U, 0x3d89492c3b021aa0U, 0x3c5087273db59af0U,
  0xbda24bf3bdfd145cU, 0x3d79c70bbb68673aU, 0x3cead4d1bc61e568U, 0x3d511edd3dbcfbc4U,
  0x3e13b2f83e07c3e8U, 0x3d5bab853dc0025cU, 0xbc0ad948bd162362U, 0xbdbf0ee9bc9a39faU,
  0xbd2921eebdfadd40U, 0x3e3267d83d745ec5U, 0xbbafd17b3dcb9f79U, 0x3d57f18c3e03a75aU,
  0x3d4b9a0c3cea2c9cU, 0xbd81ce75bccd87daU, 0xbe3f9852be02c367U, 0xbe22e943bea92319U,
  0xbe96d051beb8cdcfU, 0xbe6b8759be8b72e5U, 0xbeab99b7bea0798fU, 0xbe85de5ebef6cbb0U,
  0xbe79af93bea60f19U, 0xbebdd76bbec6103bU, 0xbe04d75dbe606590U, 0xbe8a9e2ebe2a57cbU,
  0x3ce61ff0be09b1b5U, 0x3c4edba03c583db8U, 0xbd89fd8bbd3b535bU, 0xbc234860bd3d6870U,
  0xbd8068d4bd8c39c0U, 0xbc11980fbdf4a18dU, 0xbebb9238bdf0986bU, 0x3c3dfc1abe740b83U,
  0xbe31699e3d8006a2U, 0xbe10933ebec22dfaU, 0xbec3e1dcbe940ba5U, 0xbe944387becac125U,
  0xbe140b0bbec2c292U, 0xbc4e4760bbe5ad36U, 0xbd7fa34a3da2c828U, 0x3d2779a43b54c4e0U,
  0x3b533680bd3601baU, 0xbd5b60aabc3bb3d8U, 0xbc4224583d1197daU, 0xbba203b03be164e0U,
  0x3d8754c03d425278U, 0xbd8f02e9bd23c220U, 0x3be9869fbbcc2bdcU, 0xbda0f6a4bd5de453U,
  0x3cd3b1d43d42b8f0U, 0x3d7aa138bc80d704U, 0x3d95829abd2a9f45U, 0xbd9177073d5738f4U,
  0x3d5d2a3cbd4ebcfaU, 0x3c696c883d7857d4U, 0xbbe87a203d511344U, 0xbd354b4cbd74b48eU,
  0x3e27bcee3e0e1475U, 0x3e3405cf3e057b97U, 0x3e377d583dc82098U, 0x3db3c8453e18cdacU,
  0x3e9994183e9e6ac1U, 0x3e87f4633e066c35U, 0x3e95d3223e8dd7a9U, 0x3e489e543e871235U,
  0x3d8011173d7740cdU, 0x3d5186d53dbda03dU, 0xbdac22493cefee6cU, 0xbd016ed93b894110U,
  0xbb59e4003da0262aU, 0x3b8019c33c24ecc1U, 0x3e1ec41a3df1e2c3U, 0x3e8946d33e03f72aU,
  0x3e05c00f3e849b9cU, 0x3e9077b53e30aafeU, 0x3e546f4c3e9eb391U, 0x3e865b963e904214U,
  0x3ee4b53e3ec6aa62U, 0x3ef8822e3ee6cad1U, 0x3e2d56783e5eefa7U, 0x3e83f7493e6f0cecU,
  0x3d4302d83dd0291bU, 0xbd1ce2353d08b62aU, 0x3cbaf1c8bc773ed8U, 0x3de46e343d796792U,
  0xbe359e313e00cacbU, 0xbb146e03be14bff4U, 0x3cdf64f23cf57021U, 0x3d839de13c8bbbbfU,
  0x3e9184463de2e707U, 0x3e6129853e5dfc10U, 0x3ce15f1c3e1bc892U, 0x3e9b84ed3df57d2fU,
  0xbdc34ae03d058707U, 0x3d1fc6853dba7f79U, 0x3d8435d83e39f695U, 0x3a4a6d803d969b7eU,
  0xbde4b730bb83ee80U, 0x3b816cc0be947f43U, 0xbeaed5b1bd724027U, 0xbd699097bdbddc79U,
  0xbdb3a6e0be189146U, 0x3e2413053d2b68beU, 0x3d794c8abb227495U, 0x3e2f6ba43e0c63bdU,
  0x3e3167a43de9b2f9U, 0x3c75ae183e476afdU, 0x3e1536673d4a26cbU, 0x3dd69c333dfcce7bU,
  0x3bde1db5bd8a594dU, 0xbd858d0f3e294209U, 0x3d85d8a43d1228eeU, 0xbe3ef4a7bcec7025U,
  0xbee2fae5be952e33U, 0xbda2888bbe707f65U, 0x3de08f4cbd5ef0efU, 0x3dfe1a6f3e12afc6U,
  0x3e551ea93e489797U, 0x3e0c73b83e2f7171U, 0x3dea47613dc920ebU, 0x3de1a54e3e47d5e5U,
  0x3dc031413dfb4a24U, 0x3e2bb24f3e5a3d51U, 0x3d690ccc3dc43de7U, 0xbce1b50bbdb5bcf3U,
  0xbdca35bdbda9c5cfU, 0xbec8ef5e3db03fccU, 0xbd7f400abe0d1cf8U, 0x3ddba26bbd84cc64U,
  0x3d7532063d2031a0U, 0x3dfc7ed13e425356U, 0x3e86ba0e3e56e766U, 0x3e6faf673e76169eU,
  0x3e263d263e47cf40U, 0x3e6198843e4b0490U, 0x3dd684213e12c7fbU, 0xbceb33493d14841eU,
  0x3d9fee5a3dbd81e5U, 0xbd13b90ebd6dc476U, 0xbd46dfa0bd8a9cf0U, 0xbe2b331b3ced23aeU,
  0xbde6985dbe9ebe12U, 0x3c60b467bcbee5a1U, 0x3de5f1743dbbedc8U, 0x3e1e378b3e4a12abU,
  0x3e53538e3e87da86U, 0x3e71ea473eb91491U, 0x3e05d0913deb09cbU, 0x3e299da43d9ad0a5U,
  0x3e1dedbe3e585521U, 0xbe1cadb6bcbda3b6U, 0x3dbd79ecbd944704U, 0xbde08348bad3fb7bU,
  0x3b01ba7c3c057126U, 0xbe46d27ebd33eaf0U, 0xbbdd3d70be349a0aU, 0xbe307f8f3c22d536U,
  0x3d659bae3d0f8581U, 0x3e4a7b033dbb3405U, 0x3d1bd7e93d28dbb8U, 0x3da5cc0a3df9c8b8U,
  0x3d1c7e343de13145U, 0xbc1aed1ebd87d1d5U, 0x3c8505a9bd8743a8U, 0xbe3572b2be4ec422U,
  0xbe1846d0bde44a91U, 0x3cde6c25bd6e2e4cU, 0x3c1d45bb3d559c8eU, 0xbdf6dc673d5dff1bU,
  0xbdd9755cbe4dd789U, 0x3c3bed09bcc4e61cU, 0x3d20396d3d796bfcU, 0x3e2f8f573daa646cU,
  0x3ca699913de9524cU, 0xbea646fabe7b4737U, 0xbeae2500be79ab71U, 0xbedead04be90afb9U,
  0xbebdc37abe955664U, 0xbe96b427bec174c9U, 0xbe911256be28a9e8U, 0x3cfee3a7be6cfb04U,
  0xbda98a8fbd4612d8U, 0xbe6d74423db2b432U, 0x3b028087bea72069U, 0xbd32f5473d8b582bU,
  0x3dfc72a83e15446dU, 0x3d6713ec3c5f72e1U, 0xbebef978bdd0571aU, 0xbeea749bbf024420U,
  0xbe6f83b6bebf80cfU, 0xbeae9c3ebe928dc6U, 0xbea28cbdbeb205f0U, 0xbec0f11abec40b2eU,
  0xbeba9e87be3f2f07U, 0xbc472220be206aa4U, 0xbdbb1484bda97032U, 0xbe967a71be239619U,
  0xbd3d9b7cbe43ce0aU, 0xbd863a133d7ba993U, 0xbd2ba42bbcb1d9d2U, 0xbe7b6e53bdce9d6bU,
  0xbec7483fbea7b319U, 0xbea8693bbee6b35bU, 0xbd2f87f1be391242U, 0xbe190d94bd6eba34U,
  0xbe7081fbbe472aacU, 0xbe5750e0be9f4001U, 0xbe90ba6dbe690c94U, 0xbd87204abe8a587dU,
  0xbe887259bdea4164U, 0xbe073644be06e78bU, 0xbddb9cd3bdbc388eU, 0xbd1df5cd3d9b6059U,
  0xbd9959a23c55d4c8U, 0xbe3924a4bdecdc2cU, 0xbec1b5f4be93ea6dU, 0xbe83b036be9b77e6U,
  0xbce85090be22ec55U, 0x3d38b19aba56a0efU, 0xbd8f1919bcfbf5fdU, 0xbd9d0e04bb0bf114U,
  0xbe7ef3943cd3ca4fU, 0x3d779ec4be63ec77U, 0xbe02a652bd408445U, 0xbe032eb2be323331U,
  0xbd6abe753d9028a8U, 0x3c41da49bd3a1a8bU, 0xbe1bef8fbe104922U, 0xbe1f8a96bdc82f2fU,
  0xbe5e528ebd694f0bU, 0xbe143237be39ca0fU, 0xbdb817a5be7a35e6U, 0xbc83fd64bd457496U,
  0x3d703750bd9b4fefU, 0x3c8c55bf3cb0d062U, 0xbdd0ebc6bd24a04bU, 0x3daf169abdbcdac1U,
  0xbe2761393e10cc88U, 0xbd27f050be9dac21U, 0xbd97064b3e2899dcU, 0x3dd66601bdac2d11U,
  0x3d80f7813ce8f4c1U, 0xbdf9f33bbd1bda70U, 0xbe34216fbe09a271U, 0xbdb9caf3bdbdf2a8U,
  0xbe7dac9bbe37c298U, 0xbdbf6738be247819U, 0x3d9423ac3dc73136U, 0x3dd7f2ea3d8a6183U,
  0xbdd315d23de74d08U, 0x3dc01e493d58f41eU, 0xbe2f5e973dfdee05U, 0xbe46dfd6bec3b5f0U,
  0x3de8a4463dfa357aU, 0x3a0b2db5bde247a9U, 0x3d3f783d3d870823U, 0xbdf431e93a080c48U,
  0xbe1b2c0fbdb9e25fU, 0xbe40ba62be4503eaU, 0xbdfbd5c6be2e25f0U, 0xbc9fe2f9bd8cf0dfU,
  0x3d46fb6e3dadbc01U, 0xbd28bc9abdba4100U, 0x3d7886573df8cca5U, 0x3e168cc33cc3fe41U,
  0xbe0bc104bdea0b05U, 0xbca29e8bbe165041U, 0x3d9de375bda37406U, 0xbe33a97fbdfd72ccU,
  0xbd407f98bd75cccdU, 0x3d49644c3d94595dU, 0xbe0f287cbe09d6d0U, 0xbe6e767abe702bb3U,
  0xbdf53424be14e382U, 0xbd92db6abdfd84d1U, 0x3d626098bd05ae54U, 0xbc90d5ecbe04d2b4U,
  0x3ddccb3f3b9919f7U, 0x3cf0bb673da10bd9U, 0xbe466e69bd0383a0U, 0xbccb66cbbe1a3830U,
  0xbc695371bd22e127U, 0xbe321162be168512U, 0xbbd5145abd9c0142U, 0x3badd7253dd61a7dU,
  0xbe73af7cbdf7eaf8U, 0xbe7e9dddbe239a02U, 0xbd8e8558be7659b3U, 0xbc5c37a53b9ee3caU,
  0x3d79c2ce3d5f9dabU, 0xbe3103743d60e291U, 0x3f0365dcbd03880fU, 0xbcf737913d8245d4U,
  0xbdef45a73d863f18U, 0xbe12e007be9b6d8aU, 0xbd7d1c01bdcb8178U, 0x3be472d1bcd68781U,
  0xbdb714e6bd393739U, 0xbda434ddbd5e101eU, 0xbe8a946abdc3cf7fU, 0xbe14c793be66d453U,
  0x3d55719fbcb5ce8eU, 0xbd323824bd20a982U, 0x3d2e83f03d5c21eaU, 0xbd82015b3d2cf924U,
  0x3eff1f4f3d74579dU, 0xbe5911233d8f28b6U, 0xbc142a66bd8540efU, 0xbe3b2f593d10fd3eU,
  0xbe15dd6e3d937163U, 0xbbfbbb373d9ea650U, 0xbd97984d3cd7270fU, 0x3cc06634bd91d7a8U,
  0xbe523b1fbdd17e4cU, 0x3db52560bdafa716U, 0x3dff0ea23dd327a7U, 0x3d5e7d813e094e46U,
  0x3d960a313e31dbeeU, 0xbce761ed3d4f5f14U, 0x3f014fd53e7389fcU, 0xbe1ba7dc3dc288dbU,
  0x3b7fc5473a7ef500U, 0x3cfcff7f3e29ea0fU, 0x3d8e56b13db2bb6aU, 0xbd4cdd44bced5edeU,
  0xbd3496e03d5e7a56U, 0x3e2ee2c03d61dce6U, 0x3d484add3de2364fU, 0x3e4c8cb63e444641U,
  0x3e3514f03e9571e4U, 0x3e9d5f4c3e4fb3b9U, 0x3e634cad3ddd47deU, 0x3da12d4f3e6752b5U,
  0x3f00ec6d3ea0e09cU, 0x3d4bca253ea13f2cU, 0xbbbc77053d658660U, 0x3e28dfbd3d92848eU,
  0x3e0b3c783e552fb2U, 0x3b7466693d1fc01fU, 0x3df387013e6d8e5dU, 0x3e4e29e93e62a08eU,
  0x3e05972e3e5e3645U, 0x3e8bcc6c3e53cd0dU, 0x3dd502a03e838489U, 0x3e2809533e27dcaeU,
  0x3e8d03c43e2405feU, 0x3ea3839b3e962039U, 0x3ecc78b13ede53e8U, 0x3d18ed733ec1e7e1U,
  0xbe1495433c791e2cU, 0x3daa97853d5772aaU, 0x3e47e86b3d9cf090U, 0x3d982ad6bbc78720U,
  0x3e74325c3e0e664fU, 0x3ddd87c33e1101ccU, 0x3e1ea1513e2229d1U, 0x3dcc4df43e40814eU,
  0x3db753613e9076edU, 0x3e1d83ac3dffb949U, 0x3e27401b3dc75ecfU, 0x3e4680033e0d7f51U,
  0x3df96b223e305935U, 0xbbf76b563e08fa2aU, 0xbc85a668bd1b2abfU, 0xbcd7c9f9bcd46faaU,
  0x3e071714bd8769c2U, 0xbd41d3f8bd3ddf0cU, 0x3d865baf3ba914e6U, 0x3de7aea33dfd70edU,
  0x3d2d46fe3e2835c3U, 0x3e12a08a3debf928U, 0x3e17d8a63e2c0d3bU, 0x3ad89a01bd1dec67U,
  0x3dc107003dbf94d0U, 0x3e84cc8b3e87cb13U, 0x3e3e6e5a3e2ab85fU, 0xbb5534c03d47097bU,
  0x3d0b27283d71462cU, 0xbe226badbe2f1532U, 0x3d883e6abe832db4U, 0x3da78f8c3900f294U,
  0x3d8b2f833df7c7afU, 0xbd416d033d71bcdfU, 0x3d925f563d5e7e5fU, 0x3d82472a3dd46a23U,
  0x3e674b2dbcc75786U, 0x3c88531a3e6f9aedU, 0x3e4f8cba3dc2ae61U, 0x3e4e32953e5b3e6eU,
  0x3e461fa23ebec7a6U, 0x3c5d18903e4dfeaaU, 0xbd3838a63d97714cU, 0x3d0fec613d6d9ed3U,
  0xbdf08f23bd5cc860U, 0xbdcdd9933b8a6907U, 0xbda472adbcdcc5efU, 0xbda06020be141c4dU,
  0xbc0e543a3d1e6b86U, 0xbe078b05bd609962U, 0x3da0de6ebce92756U, 0x3e1150623e1b74f6U,
  0x3e90110f3d5efe19U, 0x3e85f72c3ee02c02U, 0x3e1114753e6e0f42U, 0xbd9f45a53e24bd2bU,
  0x3cbc3b98bd9796f2U, 0xbd22ef23bd99a013U, 0x3d8ae115bca3b57bU, 0xbe2ed23fbd7afd7bU,
  0x3d8f1533bda22f0eU, 0x3d92f7ff3d9af151U, 0x3e4ce0533de9100bU, 0xbd6166ca3dfa85d8U,
  0xbd1b5a7c3e05d3d1U, 0x3e54ca3e3d09fc13U, 0x3dbba8d13e10b495U, 0x3e722e3d3e7d437aU,
  0x3da24f78bc924f2cU, 0xbd1c5cc73c354eb8U, 0x3ca0852c3d49a194U, 0x3d94aacebcda230cU,
  0x3b6a8ee7bdae2ca8U, 0xbcb4bf9abe1039e7U, 0xbda1dc52bdeb3b9cU, 0xbe00deb2be07d484U,
  0xbe0c702abdc035ffU, 0xbe434cd43c3f54acU, 0xbe696869be39b91cU, 0x3de1f857bd41e83eU,
  0xbe166d093da5a8cbU, 0xbdaf46e0bdbc9e78U, 0x3c65e0983d5b65a4U, 0x3d9a0d763da47b58U,
  0x3d129d3c3d3e9bd0U, 0xbda4dc5dbd2c31e8U, 0xbd1937be3ba23670U, 0xbd2fa3eebd633926U,
  0xbcdbe832bd4529e3U, 0xbd4f85293d8c89a0U, 0xbd3a23543d672082U, 0x3d316781bc9fa23fU,
  0xbd75b4d0bd146648U, 0xbceef960bc094ef0U, 0x3d74c7543c903c4cU, 0x3cb76b403da473bcU,
  0xbc8a6404bc2baba8U, 0x3d3fa8883cf80a3cU, 0xbd5ef8b0bc6020c8U, 0xbd8af19a3c2c4720U,
  0x3ddf2fc23db67b0eU, 0x3d65091fbd2ec421U, 0x3d9df5963d874dbaU, 0x3e6ed7d93c2532f1U,
  0x3d948c243ebfac79U, 0x3e167bf53d19ba3bU, 0x3e0bc2a7bd32638eU, 0x3e9074a33e922c8dU,
  0x3e5967073e7325c2U, 0x3d85d5ec3e6c33b4U, 0x3bf19cf03d8c1c6aU, 0x3c473d28bd562d16U,
  0xbcbbe934bd36d9a6U, 0xbb65970bbd3f27beU, 0x3d4bd9f63def7264U, 0x3e2a3669bd18ef44U,
  0xbd5bc01abd5f14d8U, 0xbce4690cbc3339c5U, 0xbd049e6f3dc28c5cU, 0xbc02c650bd86848bU,
  0x3e160c803dbe0684U, 0x3e738dce3e4c6b70U, 0x3e74c1a83e33345fU, 0x3e0831513ee1f53dU,
  0xbddd9c82bd8a2d9cU, 0x3a06d700bc314718U, 0xbcfe5a80bd9a7681U, 0x3e86098b3e13e1e7U,
  0x3e09f1683ded7a32U, 0xbcda2a9b3e148dfcU, 0xbdf96c06be1e9ddfU, 0xbe412533bbdc18b1U,
  0xbde6fe09bd1d6242U, 0xbaae7725be8cd66dU, 0x3d532c5cbc3fa8c2U, 0x3df0eeed3d610815U,
  0x3e2f7b903e074b30U, 0x3e1420db3db4143bU, 0x3b6e0645bd620569U, 0xbd49a5753df27475U,
  0x3dcbe4943ce5da38U, 0x3e8550d73e34370fU, 0xbdb4340c3deceea9U, 0xbe29fd8cbdab760bU,
  0xbe868a13bdc1500eU, 0xbe452c6fbdfa6318U, 0xbc60d184be51b259U, 0x3d936fa3be0e8adbU,
  0xbd06639bbd9e5b53U, 0xbce1a36dbd06e569U, 0x3e15f4a13dc13e44U, 0x3e2018483e2511eaU,
  0x3bd72dfe3e2a1b7fU, 0x3cb0e2a93e72ca90U, 0x3d920e9abd0ee5b7U, 0x3e36df8e3cb95899U,
  0xbe02c9c13ca97caaU, 0xbe370220be24e1d9U, 0xbe18fa59be827ae7U, 0xbe4c87f0be5c3b7bU,
  0xbdb11973be4055dfU, 0xbd958303be030e03U, 0xbe030384be39ae2eU, 0x3e0ffbbdbd38c321U,
  0x3d04eb993d48dd02U, 0x3d4afac53df3e0b8U, 0x3e1482f03e8d84b9U, 0x3e3238793e992a7cU,
  0xbd346bbdbd6ad624U, 0xbe02c476bdf85824U, 0xbe938ff1be1f1954U, 0xbe64c967be9c94cfU,
  0xbe97844ebe40c934U, 0xbd4b0c55be1413cfU, 0xbde54294bddc6cdaU, 0xbdb01a5c3cd1f49bU,
  0x3c71cce1bd603c77U, 0x3ab1f6563dd3157cU, 0x3b8758003d6dc7aeU, 0x3e3329cd3d2718c1U,
  0x3edda3b13ec57812U, 0x3dca5bb73d712568U, 0xbd7a792e3da90226U, 0xbdcf2d92be731d8dU,
  0xbe7593e2be7c42d1U, 0xbe9e6a4bbea50bdbU, 0xbe1cb08abe537f3eU, 0xbcec5b54bdfe7919U,
  0xbd8931333d49f6b7U, 0x3d148f553d93d222U, 0x3df249713e09b8e8U, 0x3e49cac83e4020f0U,
  0x3d63c68e3ddc3b46U, 0x3e7016743da6870bU, 0x3eb9b5fd3ea925f9U, 0x3dfcebdf3db12189U,
  0xbdf8587e3d5bb077U, 0xbe2b8d0dbe58ec3bU, 0xbe218f5abe66fed4U, 0xbea63022be88567dU,
  0xbd8e71babe51b906U, 0xbc7d8f263c9f6d8fU, 0x3dbcc256bd82ce8eU, 0x3da581ad3d030d4cU,
  0x3db4e9183dba75a2U, 0x3dafd0373daa7d21U, 0x3dbeb3f73de5b6faU, 0x3b38f4923dff6714U,
  0x3e7f89603e98d9c7U, 0x3e5c23ce3e8a7e5bU, 0xbe00d561bda8022fU, 0xbe08508cbdda0023U,
  0xbe938985be159541U, 0xbe2c84f6be9ca635U, 0xbe068c4dbbf834a0U, 0x3aa909c4bd022e25U,
  0x3e2c7034bdeca3aeU, 0x3e2783fa3da2ecccU, 0x3ce2252d3d4580f4U, 0x3da504dfbc8dc1e9U,
  0x3c01e3993d4f223aU, 0x3e49ddc53db836f4U, 0x3ef194873f018691U, 0xbe0d5ddf3e979f30U,
  0x3c43b5f5be2a919cU, 0xbe3fd2bfbe2b5ea1U, 0xbe97030abe95f51aU, 0xbe9fac49becaaaa1U,
  0xbe0b662cbe1cbe4cU, 0x3d63e345be219b4fU, 0x3e929ad63e0682cdU, 0x3e3daf483e81fe4fU,
  0xbcc880de3df9efc2U, 0xbdd1b735bd8df8c0U, 0xbd8e0252bd966d0bU, 0x3e8938b63d644defU,
  0x3ea4343d3f15911aU, 0x3d1007183e6efbf8U, 0xbde388d1be348832U, 0xbe73536ebe681858U,
  0xbea9c3afbee9d644U, 0xbe8132f2bea718adU, 0xbe6a947fbe3159bdU, 0x3c84337ebe256caaU,
  0x3ef868713e321f80U, 0x3e5b2e063ed964d5U, 0x3d8d572f3dcdbb9cU, 0xbdd721903db97ec7U,
  0xbd805e59bdff4f89U, 0x3def430abd3193b9U, 0x3e8562243ef1a347U, 0x3db3e45f3ecc4cb4U,
  0xbe5f86f8bdab3056U, 0xbe505626be2a07c6U, 0xbe845a7dbe788395U, 0xbe0bd688bd97566eU,
  0xbdc30226be60c95cU, 0x3ca4675abd58da9aU, 0x3ee389103e98d2e7U, 0x3e7a25403ec015abU,
  0x3e316084bce783b0U, 0xbb8034083d2caad5U, 0xbe50cd67bdc9d06cU, 0xbe246ed4beb42a1cU,
  0xbe8727ddbe8214d4U, 0xbda08997be47f206U, 0x3d1fce8a3dd5e871U, 0x3d4b41c1be82ee65U,
  0xbe82ecd33cf70006U, 0xbd87d20cbdaa9ea8U, 0xbde4692cbc8d2372U, 0x3ca77079bd787a9fU,
  0x3e9d0d373e6d485fU, 0x3e6b1cb23e95cb2eU, 0xb9f539d43d97c57dU, 0xbd71f220bdc3980bU,
  0xbeaa5f85be4fd169U, 0xbea01dc2be87b15dU, 0xbef39ce9bef9605fU, 0xbd72d3a0bebdd672U,
  0x3cb26a6f3d9bde96U, 0x3c9c4a10bc94567dU, 0xbe40fa01be01433bU, 0xbe27827cbdcb1892U,
  0x3d034287bd9837deU, 0x3d0620cbbde47fe5U, 0x3e910f1a3e43d329U, 0x3de149e03e650259U,
  0xbd83194cbd85e5f0U, 0xbe31ceb7bdd6212eU, 0xbd95cd7dbe3fbb2aU, 0xbe96e63fbe871d58U,
  0xbe989e2abebc0b67U, 0xbe12f0b5bea1dafdU, 0x3df1a45cbd0b69bdU, 0xbe6594e13d83280fU,
  0xbd95a36fbd1bcf3eU, 0xbdae6f6cbd810361U, 0xbdc3cc6cbc3f0831U, 0xbd522951bd99531dU,
  0x3e620bbb3e5533c3U, 0xbdd8ba3c3d949ec1U, 0xbe357427bda5f4d8U, 0xbddf2d333ce4223dU,
  0xbe59bced3a2d8216U, 0xbdd53a05be44e68bU, 0xbeaa876ebe6e32a8U, 0xbe8285f8be8e49daU,
  0x3e6f50debd9d5a4eU, 0xbdca58053e0ab913U, 0x3e6a53793e2ea716U, 0xbe40d9d5bdc15c29U,
  0xbe83e30fbdde786fU, 0xbba97f5ebe076fe2U, 0x3d410cea3c069179U, 0xbd54046bbd625173U,
  0xbd186865bd7edfacU, 0x3dcbd5e63da42071U, 0xbdf8b1b9bce0aa73U, 0xbe8b7665be6d30c5U,
  0xbed178ffbe3d6bd6U, 0xbe006708be82f49fU, 0x3dd2f576bd8ec392U, 0x3da188b4bd24cc1dU,
  0x3d18fe5f3e58cbbcU, 0xbd19e6043dad66d5U, 0xbe3b5097bda2cecfU, 0xbe2cf25ebe130283U,
  0xbe6fc903be8c4279U, 0xbda0b8eb3c8d52faU, 0x3d85ffbe3db1474dU, 0x3e018cd53d903d90U,
  0xbe5c5eefbd2e6e08U, 0xbea77c88bebc530dU, 0xbee62fd8bebc7031U, 0x3c808929be62c7daU,
  0x3b6f8107be1e1430U, 0x3da04182bd73f94eU, 0x3ca1ed3b3ddd9742U, 0x3c203def3d54dfaeU,
  0xbcea73533dcbb279U, 0xbdc17ca3bda05cf5U, 0xbe2a701bbe31dcb1U, 0x3e24d54b3de161bdU,
  0x3e80fc4e3ddcd341U, 0x3d176c563e19fe8dU, 0xbe99afecbe0e9b94U, 0xbecce1e8bed5b305U,
  0xbe848f67bf00099fU, 0x3d6fb492be5073d4U, 0x3cb505153dea90c8U, 0x3e2652f8b94d18feU,
  0x3df6492abcbca594U, 0x3cf6cfac3db7a092U, 0x3b3243633db0298aU, 0xbdcaba6d3da05d56U,
  0xbcf69a22bdf44488U, 0x3d9dfab63d8a7b46U, 0x3e5e20b13e185911U, 0xbd0c31bd3e6cff0dU,
  0xbeb13308be2307b6U, 0xbecd380abf029c6dU, 0xbe221a4dbe23085dU, 0xbd45e218bd2c432bU,
  0x3e3565f2bd9d7238U, 0xbcb82975bcc22a9bU, 0x3cc1f070bcd88873U, 0x3aebfeaf3dd0f888U,
